{
  "version": "1.0",
  "truncation": null,
  "padding": null,
  "added_tokens": [
    {
      "id": 0,
      "content": "<pad>",
      "single_word": false,
      "lstrip": false,
      "rstrip": false,
      "normalized": false,
      "special": true
    },
    {
      "id": 1,
      "content": "<unk>",
      "single_word": false,
      "lstrip": false,
      "rstrip": false,
      "normalized": false,
      "special": true
    },
    {
      "id": 2,
      "content": "<bos>",
      "single_word": false,
      "lstrip": false,
      "rstrip": false,
      "normalized": false,
      "special": true
    },
    {
      "id": 3,
      "content": "<eos>",
      "single_word": false,
      "lstrip": false,
      "rstrip": false,
      "normalized": false,
      "special": true
    }
  ],
  "normalizer": null,
  "pre_tokenizer": {
    "type": "Whitespace"
  },
  "post_processor": null,
  "decoder": null,
  "model": {
    "type": "BPE",
    "dropout": null,
    "unk_token": "<unk>",
    "continuing_subword_prefix": null,
    "end_of_word_suffix": null,
    "fuse_unk": false,
    "byte_fallback": false,
    "ignore_merges": false,
    "vocab": {
      "<pad>": 0,
      "<unk>": 1,
      "<bos>": 2,
      "<eos>": 3,
      "!": 4,
      "\"": 5,
      "#": 6,
      "$": 7,
      "%": 8,
      "&": 9,
      "'": 10,
      "(": 11,
      ")": 12,
      "*": 13,
      "+": 14,
      ",": 15,
      "-": 16,
      ".": 17,
      "/": 18,
      "0": 19,
      "1": 20,
      "2": 21,
      "3": 22,
      "4": 23,
      "5": 24,
      "6": 25,
      "7": 26,
      "8": 27,
      "9": 28,
      ":": 29,
      ";": 30,
      "=": 31,
      "?": 32,
      "A": 33,
      "B": 34,
      "C": 35,
      "D": 36,
      "E": 37,
      "F": 38,
      "G": 39,
      "H": 40,
      "I": 41,
      "J": 42,
      "K": 43,
      "L": 44,
      "M": 45,
      "N": 46,
      "O": 47,
      "P": 48,
      "Q": 49,
      "R": 50,
      "S": 51,
      "T": 52,
      "U": 53,
      "V": 54,
      "W": 55,
      "X": 56,
      "Y": 57,
      "Z": 58,
      "[": 59,
      "\\": 60,
      "]": 61,
      "^": 62,
      "_": 63,
      "a": 64,
      "b": 65,
      "c": 66,
      "d": 67,
      "e": 68,
      "f": 69,
      "g": 70,
      "h": 71,
      "i": 72,
      "j": 73,
      "k": 74,
      "l": 75,
      "m": 76,
      "n": 77,
      "o": 78,
      "p": 79,
      "q": 80,
      "r": 81,
      "s": 82,
      "t": 83,
      "u": 84,
      "v": 85,
      "w": 86,
      "x": 87,
      "y": 88,
      "z": 89,
      "{": 90,
      "}": 91,
      "~": 92,
      "¡": 93,
      "£": 94,
      "§": 95,
      "°": 96,
      "²": 97,
      "´": 98,
      "¼": 99,
      "½": 100,
      "¾": 101,
      "Á": 102,
      "Å": 103,
      "Ç": 104,
      "É": 105,
      "Î": 106,
      "Ö": 107,
      "×": 108,
      "ß": 109,
      "à": 110,
      "á": 111,
      "â": 112,
      "ã": 113,
      "ä": 114,
      "å": 115,
      "æ": 116,
      "ç": 117,
      "è": 118,
      "é": 119,
      "ê": 120,
      "ë": 121,
      "ì": 122,
      "í": 123,
      "î": 124,
      "ï": 125,
      "ð": 126,
      "ñ": 127,
      "ó": 128,
      "ô": 129,
      "õ": 130,
      "ö": 131,
      "÷": 132,
      "ø": 133,
      "ù": 134,
      "ú": 135,
      "ü": 136,
      "ý": 137,
      "ā": 138,
      "ă": 139,
      "ą": 140,
      "ć": 141,
      "Č": 142,
      "č": 143,
      "ē": 144,
      "ę": 145,
      "ě": 146,
      "ğ": 147,
      "ħ": 148,
      "ī": 149,
      "ı": 150,
      "ł": 151,
      "ń": 152,
      "ō": 153,
      "œ": 154,
      "ř": 155,
      "Ś": 156,
      "ś": 157,
      "Ş": 158,
      "ş": 159,
      "Š": 160,
      "š": 161,
      "Ţ": 162,
      "ū": 163,
      "Ż": 164,
      "ż": 165,
      "Ž": 166,
      "ž": 167,
      "ǎ": 168,
      "ǔ": 169,
      "ș": 170,
      "ɐ": 171,
      "ɔ": 172,
      "ə": 173,
      "ɛ": 174,
      "ɡ": 175,
      "ɥ": 176,
      "ɨ": 177,
      "ɪ": 178,
      "ɲ": 179,
      "ɾ": 180,
      "ʀ": 181,
      "ʃ": 182,
      "ʊ": 183,
      "ʐ": 184,
      "ʒ": 185,
      "ʔ": 186,
      "ʕ": 187,
      "ʲ": 188,
      "ʹ": 189,
      "ʻ": 190,
      "ˈ": 191,
      "ˌ": 192,
      "ː": 193,
      "́": 194,
      "̃": 195,
      "̍": 196,
      "̯": 197,
      "̺": 198,
      "͡": 199,
      "Θ": 200,
      "Σ": 201,
      "ί": 202,
      "α": 203,
      "γ": 204,
      "ε": 205,
      "η": 206,
      "θ": 207,
      "λ": 208,
      "μ": 209,
      "ν": 210,
      "ο": 211,
      "π": 212,
      "ρ": 213,
      "ς": 214,
      "τ": 215,
      "υ": 216,
      "ω": 217,
      "ύ": 218,
      "Ͻ": 219,
      "Ў": 220,
      "А": 221,
      "Б": 222,
      "В": 223,
      "Г": 224,
      "Е": 225,
      "З": 226,
      "И": 227,
      "К": 228,
      "М": 229,
      "Н": 230,
      "О": 231,
      "П": 232,
      "Р": 233,
      "С": 234,
      "Т": 235,
      "У": 236,
      "Ц": 237,
      "Ч": 238,
      "Ю": 239,
      "а": 240,
      "б": 241,
      "в": 242,
      "г": 243,
      "д": 244,
      "е": 245,
      "ж": 246,
      "з": 247,
      "и": 248,
      "й": 249,
      "к": 250,
      "л": 251,
      "м": 252,
      "н": 253,
      "о": 254,
      "п": 255,
      "р": 256,
      "с": 257,
      "т": 258,
      "у": 259,
      "х": 260,
      "ц": 261,
      "ч": 262,
      "ш": 263,
      "щ": 264,
      "ы": 265,
      "ь": 266,
      "э": 267,
      "ю": 268,
      "я": 269,
      "ё": 270,
      "і": 271,
      "ї": 272,
      "њ": 273,
      "ћ": 274,
      "Ѳ": 275,
      "Գ": 276,
      "ա": 277,
      "ի": 278,
      "ն": 279,
      "ռ": 280,
      "א": 281,
      "ב": 282,
      "ה": 283,
      "ו": 284,
      "ז": 285,
      "ח": 286,
      "י": 287,
      "ל": 288,
      "ם": 289,
      "מ": 290,
      "ן": 291,
      "נ": 292,
      "ע": 293,
      "ש": 294,
      "ת": 295,
      "آ": 296,
      "ا": 297,
      "ب": 298,
      "ة": 299,
      "ت": 300,
      "ج": 301,
      "ح": 302,
      "د": 303,
      "ر": 304,
      "س": 305,
      "ش": 306,
      "ص": 307,
      "ض": 308,
      "ط": 309,
      "ع": 310,
      "ف": 311,
      "ق": 312,
      "ك": 313,
      "ل": 314,
      "م": 315,
      "ن": 316,
      "ه": 317,
      "و": 318,
      "ى": 319,
      "ي": 320,
      "َ": 321,
      "ُ": 322,
      "ِ": 323,
      "ّ": 324,
      "ْ": 325,
      "ٱ": 326,
      "ٹ": 327,
      "پ": 328,
      "چ": 329,
      "ڈ": 330,
      "ژ": 331,
      "ک": 332,
      "گ": 333,
      "ہ": 334,
      "ی": 335,
      "উ": 336,
      "দ": 337,
      "ন": 338,
      "ম": 339,
      "য": 340,
      "র": 341,
      "া": 342,
      "্": 343,
      "ค": 344,
      "ง": 345,
      "พ": 346,
      "ม": 347,
      "ร": 348,
      "ว": 349,
      "ห": 350,
      "ั": 351,
      "า": 352,
      "ใ": 353,
      "่": 354,
      "က": 355,
      "ဃ": 356,
      "င": 357,
      "စ": 358,
      "ဈ": 359,
      "ဉ": 360,
      "ည": 361,
      "ဋ": 362,
      "ဌ": 363,
      "ဍ": 364,
      "ဎ": 365,
      "ဏ": 366,
      "တ": 367,
      "ဓ": 368,
      "န": 369,
      "ပ": 370,
      "မ": 371,
      "ရ": 372,
      "ဝ": 373,
      "သ": 374,
      "ဠ": 375,
      "ါ": 376,
      "ာ": 377,
      "့": 378,
      "း": 379,
      "်": 380,
      "ျ": 381,
      "ြ": 382,
      "ွ": 383,
      "ှ": 384,
      "၀": 385,
      "၁": 386,
      "၂": 387,
      "၃": 388,
      "၄": 389,
      "၅": 390,
      "၆": 391,
      "၇": 392,
      "၈": 393,
      "၉": 394,
      "ၐ": 395,
      "ၑ": 396,
      "Ḍ": 397,
      "ḍ": 398,
      "ḷ": 399,
      "ṇ": 400,
      "ṉ": 401,
      "Ṣ": 402,
      "ṣ": 403,
      "ṭ": 404,
      "ἴ": 405,
      "Ἱ": 406,
      "​": 407,
      "‌": 408,
      "–": 409,
      "—": 410,
      "‘": 411,
      "’": 412,
      "“": 413,
      "”": 414,
      "†": 415,
      "′": 416,
      "″": 417,
      "‿": 418,
      "€": 419,
      "↑": 420,
      "−": 421,
      "∗": 422,
      "≈": 423,
      "≠": 424,
      "⋅": 425,
      "─": 426,
      "☆": 427,
      "ア": 428,
      "ガ": 429,
      "ゴ": 430,
      "シ": 431,
      "ス": 432,
      "ッ": 433,
      "ト": 434,
      "ド": 435,
      "ペ": 436,
      "ュ": 437,
      "ラ": 438,
      "ロ": 439,
      "ン": 440,
      "・": 441,
      "一": 442,
      "中": 443,
      "也": 444,
      "人": 445,
      "元": 446,
      "光": 447,
      "公": 448,
      "兴": 449,
      "勉": 450,
      "司": 451,
      "名": 452,
      "和": 453,
      "因": 454,
      "坊": 455,
      "大": 456,
      "天": 457,
      "夫": 458,
      "奇": 459,
      "家": 460,
      "属": 461,
      "山": 462,
      "岡": 463,
      "崔": 464,
      "巢": 465,
      "市": 466,
      "座": 467,
      "庵": 468,
      "後": 469,
      "技": 470,
      "拳": 471,
      "控": 472,
      "敦": 473,
      "日": 474,
      "昇": 475,
      "月": 476,
      "有": 477,
      "朋": 478,
      "本": 479,
      "术": 480,
      "村": 481,
      "棋": 482,
      "榮": 483,
      "構": 484,
      "樹": 485,
      "橋": 486,
      "機": 487,
      "武": 488,
      "水": 489,
      "沈": 490,
      "沢": 491,
      "油": 492,
      "洪": 493,
      "海": 494,
      "渡": 495,
      "源": 496,
      "澤": 497,
      "然": 498,
      "物": 499,
      "王": 500,
      "生": 501,
      "田": 502,
      "男": 503,
      "益": 504,
      "石": 505,
      "碁": 506,
      "科": 507,
      "聖": 508,
      "股": 509,
      "能": 510,
      "豊": 511,
      "賀": 512,
      "資": 513,
      "運": 514,
      "道": 515,
      "部": 516,
      "鄭": 517,
      "金": 518,
      "鉉": 519,
      "鉱": 520,
      "長": 521,
      "限": 522,
      "院": 523,
      "鳴": 524,
      "鸟": 525,
      "기": 526,
      "김": 527,
      "남": 528,
      "면": 529,
      "승": 530,
      "암": 531,
      "용": 532,
      "웅": 533,
      "익": 534,
      "정": 535,
      "최": 536,
      "현": 537,
      "화": 538,
      "he": 539,
      "an": 540,
      "in": 541,
      "er": 542,
      "the": 543,
      "on": 544,
      "or": 545,
      "es": 546,
      "==": 547,
      "is": 548,
      "ar": 549,
      "en": 550,
      "at": 551,
      "al": 552,
      "ed": 553,
      "as": 554,
      "it": 555,
      "of": 556,
      "and": 557,
      "ic": 558,
      "re": 559,
      "ou": 560,
      "om": 561,
      "to": 562,
      "le": 563,
      "st": 564,
      "ion": 565,
      "ing": 566,
      "am": 567,
      "th": 568,
      "19": 569,
      "il": 570,
      "ac": 571,
      "20": 572,
      "ent": 573,
      "The": 574,
      "ad": 575,
      "el": 576,
      "ch": 577,
      "ro": 578,
      "was": 579,
      "ay": 580,
      "ol": 581,
      "se": 582,
      "for": 583,
      "ur": 584,
      "iv": 585,
      "ter": 586,
      "id": 587,
      "ir": 588,
      "be": 589,
      "un": 590,
      "ag": 591,
      "us": 592,
      "im": 593,
      "all": 594,
      "ow": 595,
      "ation": 596,
      "ig": 597,
      "op": 598,
      "ul": 599,
      "ov": 600,
      "ist": 601,
      "et": 602,
      "em": 603,
      "oun": 604,
      "ot": 605,
      "rom": 606,
      "pl": 607,
      "ec": 608,
      "enc": 609,
      "are": 610,
      "It": 611,
      "ers": 612,
      "um": 613,
      "In": 614,
      "by": 615,
      "ap": 616,
      "av": 617,
      "res": 618,
      "ther": 619,
      "art": 620,
      "Re": 621,
      "com": 622,
      "ian": 623,
      "de": 624,
      "fer": 625,
      "ia": 626,
      "ber": 627,
      "ly": 628,
      "===": 629,
      "ith": 630,
      "from": 631,
      "200": 632,
      "ut": 633,
      "ain": 634,
      "os": 635,
      "est": 636,
      "with": 637,
      "tr": 638,
      "He": 639,
      "ab": 640,
      "Ch": 641,
      "ill": 642,
      "pe": 643,
      "ak": 644,
      "con": 645,
      "St": 646,
      "ity": 647,
      "ce": 648,
      "his": 649,
      "201": 650,
      "we": 651,
      "ne": 652,
      "wh": 653,
      "ences": 654,
      "od": 655,
      "ies": 656,
      "ant": 657,
      "that": 658,
      "Refer": 659,
      "),": 660,
      "ate": 661,
      "References": 662,
      "oc": 663,
      "ie": 664,
      "ct": 665,
      "sh": 666,
      "ame": 667,
      "als": 668,
      "te": 669,
      "gr": 670,
      "man": 671,
      "ard": 672,
      "ine": 673,
      "bor": 674,
      "if": 675,
      "up": 676,
      "our": 677,
      "ld": 678,
      "mer": 679,
      "ong": 680,
      "ack": 681,
      "ary": 682,
      "ip": 683,
      "ment": 684,
      "ound": 685,
      "pr": 686,
      "pro": 687,
      "Un": 688,
      "ear": 689,
      "199": 690,
      "ish": 691,
      "ver": 692,
      "ort": 693,
      "au": 694,
      "act": 695,
      "ich": 696,
      "ated": 697,
      "ess": 698,
      "18": 699,
      "ex": 700,
      "play": 701,
      "ht": 702,
      "ust": 703,
      "cl": 704,
      "Ar": 705,
      "bs": 706,
      "ost": 707,
      "born": 708,
      "amp": 709,
      "end": 710,
      "one": 711,
      "ell": 712,
      "ke": 713,
      "ach": 714,
      "ere": 715,
      "di": 716,
      "ican": 717,
      "own": 718,
      "ople": 719,
      "ge": 720,
      "ast": 721,
      "ember": 722,
      "ive": 723,
      "ran": 724,
      "wor": 725,
      "were": 726,
      "her": 727,
      "over": 728,
      "ub": 729,
      "af": 730,
      "part": 731,
      "land": 732,
      "out": 733,
      "ty": 734,
      "also": 735,
      "der": 736,
      "has": 737,
      "aw": 738,
      "ide": 739,
      "ial": 740,
      "sp": 741,
      "bsit": 742,
      "age": 743,
      "websit": 744,
      "ue": 745,
      "rit": 746,
      "ave": 747,
      "ok": 748,
      "198": 749,
      "Al": 750,
      "people": 751,
      "ass": 752,
      "irst": 753,
      "ud": 754,
      "ight": 755,
      ").": 756,
      "ome": 757,
      "00": 758,
      "ical": 759,
      "ph": 760,
      "ra": 761,
      "ect": 762,
      "An": 763,
      "ore": 764,
      "ri": 765,
      "per": 766,
      "qu": 767,
      "Amer": 768,
      "ens": 769,
      "tern": 770,
      "comp": 771,
      "ev": 772,
      "og": 773,
      "first": 774,
      "li": 775,
      "ates": 776,
      "ew": 777,
      "me": 778,
      "Other": 779,
      "kn": 780,
      "ade": 781,
      "ans": 782,
      "ived": 783,
      "Mar": 784,
      "ime": 785,
      "ited": 786,
      "ational": 787,
      "ang": 788,
      "ict": 789,
      "dr": 790,
      "ions": 791,
      "197": 792,
      "other": 793,
      "not": 794,
      "202": 795,
      "ally": 796,
      "bec": 797,
      "mov": 798,
      "which": 799,
      "had": 800,
      "ug": 801,
      "br": 802,
      "che": 803,
      "websites": 804,
      "ure": 805,
      "ous": 806,
      "Le": 807,
      "ory": 808,
      "port": 809,
      "American": 810,
      "ater": 811,
      "ice": 812,
      "but": 813,
      "ics": 814,
      "have": 815,
      "uc": 816,
      "can": 817,
      "ace": 818,
      "iz": 819,
      "whe": 820,
      "form": 821,
      "pt": 822,
      "co": 823,
      "194": 824,
      "oug": 825,
      "bo": 826,
      "pres": 827,
      "Wor": 828,
      "wo": 829,
      "uary": 830,
      "ind": 831,
      "known": 832,
      "Nor": 833,
      "Se": 834,
      "used": 835,
      "year": 836,
      "ath": 837,
      "She": 838,
      "ks": 839,
      "they": 840,
      "193": 841,
      "United": 842,
      "This": 843,
      "ult": 844,
      "ob": 845,
      "ball": 846,
      "mon": 847,
      "ence": 848,
      "ounty": 849,
      "dis": 850,
      "ire": 851,
      "their": 852,
      "go": 853,
      "Com": 854,
      "Sh": 855,
      "cent": 856,
      "back": 857,
      "195": 858,
      "old": 859,
      "ake": 860,
      "who": 861,
      "son": 862,
      "En": 863,
      "its": 864,
      "ree": 865,
      "10": 866,
      "196": 867,
      "Fran": 868,
      "mun": 869,
      "ry": 870,
      "ser": 871,
      "att": 872,
      "Jan": 873,
      "io": 874,
      "nor": 875,
      "They": 876,
      "hy": 877,
      "cor": 878,
      "int": 879,
      "iss": 880,
      "many": 881,
      "off": 882,
      "most": 883,
      "ident": 884,
      "Arch": 885,
      "Par": 886,
      "cre": 887,
      "ele": 888,
      "fl": 889,
      "air": 890,
      "call": 891,
      "World": 892,
      "made": 893,
      "States": 894,
      "ase": 895,
      "time": 896,
      "ton": 897,
      "ann": 898,
      "ite": 899,
      "this": 900,
      "after": 901,
      "city": 902,
      "ward": 903,
      "vis": 904,
      "Jo": 905,
      "ina": 906,
      "ash": 907,
      "New": 908,
      "oup": 909,
      "ah": 910,
      "mp": 911,
      "str": 912,
      "ten": 913,
      "istr": 914,
      "15": 915,
      "any": 916,
      "ital": 917,
      "Af": 918,
      "found": 919,
      "As": 920,
      "oot": 921,
      "ames": 922,
      "ign": 923,
      "two": 924,
      "outh": 925,
      "ustr": 926,
      "died": 927,
      "pol": 928,
      "12": 929,
      "ley": 930,
      "Can": 931,
      "ason": 932,
      "reg": 933,
      "called": 934,
      "County": 935,
      "Th": 936,
      "incl": 937,
      "uring": 938,
      "work": 939,
      "song": 940,
      "ould": 941,
      "lin": 942,
      "les": 943,
      "mar": 944,
      "ough": 945,
      "On": 946,
      "TV": 947,
      "there": 948,
      "became": 949,
      "17": 950,
      "way": 951,
      "iver": 952,
      "been": 953,
      "ress": 954,
      "Way": 955,
      "ci": 956,
      "lo": 957,
      "ations": 958,
      "med": 959,
      "hel": 960,
      "ik": 961,
      "bet": 962,
      "po": 963,
      "ters": 964,
      "day": 965,
      "ff": 966,
      "ince": 967,
      "ret": 968,
      "16": 969,
      "II": 970,
      "Mach": 971,
      "ased": 972,
      "ague": 973,
      "very": 974,
      "ampion": 975,
      "Con": 976,
      "mus": 977,
      "pop": 978,
      "ivers": 979,
      "about": 980,
      "Archived": 981,
      "lar": 982,
      "urr": 983,
      "col": 984,
      "some": 985,
      "ition": 986,
      "192": 987,
      "De": 988,
      "Ger": 989,
      "ib": 990,
      "ile": 991,
      "sing": 992,
      "Machine": 993,
      "Gre": 994,
      "writ": 995,
      "ction": 996,
      "ubl": 997,
      "ium": 998,
      "ick": 999,
      "Wayback": 1000,
      "For": 1001,
      "more": 1002,
      "name": 1003,
      "tt": 1004,
      "uch": 1005,
      "them": 1006,
      "ages": 1007,
      "ship": 1008,
      "Eng": 1009,
      "Ed": 1010,
      "ars": 1011,
      "January": 1012,
      "\",": 1013,
      "Austr": 1014,
      "cont": 1015,
      "new": 1016,
      "Mon": 1017,
      "ma": 1018,
      "ings": 1019,
      "key": 1020,
      "Is": 1021,
      "into": 1022,
      "years": 1023,
      "Pro": 1024,
      "cer": 1025,
      "cap": 1026,
      "uil": 1027,
      "ause": 1028,
      "istrict": 1029,
      "des": 1030,
      "ents": 1031,
      "grap": 1032,
      "fe": 1033,
      "gan": 1034,
      "nam": 1035,
      "sk": 1036,
      "hed": 1037,
      "inn": 1038,
      "commun": 1039,
      "group": 1040,
      "Gu": 1041,
      "Sp": 1042,
      "use": 1043,
      "state": 1044,
      "season": 1045,
      "able": 1046,
      "ants": 1047,
      "ix": 1048,
      "sy": 1049,
      "only": 1050,
      "alian": 1051,
      "start": 1052,
      "2020": 1053,
      "team": 1054,
      "du": 1055,
      "ica": 1056,
      "ootball": 1057,
      "Gr": 1058,
      "Oc": 1059,
      "Pr": 1060,
      "ve": 1061,
      "ors": 1062,
      "min": 1063,
      "publ": 1064,
      "anc": 1065,
      "played": 1066,
      "partment": 1067,
      "urn": 1068,
      "ount": 1069,
      "ife": 1070,
      "11": 1071,
      "Tr": 1072,
      "aint": 1073,
      "az": 1074,
      "ond": 1075,
      "ese": 1076,
      "ional": 1077,
      "when": 1078,
      "Be": 1079,
      "Car": 1080,
      "Cup": 1081,
      "uro": 1082,
      "ular": 1083,
      "so": 1084,
      "low": 1085,
      "cond": 1086,
      "fam": 1087,
      "hn": 1088,
      "main": 1089,
      "num": 1090,
      "par": 1091,
      "player": 1092,
      "ury": 1093,
      "une": 1094,
      "Brit": 1095,
      "May": 1096,
      "Ro": 1097,
      "enn": 1098,
      "let": 1099,
      "14": 1100,
      "Pl": 1101,
      "she": 1102,
      "vision": 1103,
      "music": 1104,
      "Aug": 1105,
      "Euro": 1106,
      "rel": 1107,
      "unt": 1108,
      "Bl": 1109,
      "Ge": 1110,
      "buil": 1111,
      "led": 1112,
      "my": 1113,
      "imes": 1114,
      "Canad": 1115,
      "August": 1116,
      "Fe": 1117,
      "met": 1118,
      "like": 1119,
      "includ": 1120,
      "Jul": 1121,
      "oman": 1122,
      "igh": 1123,
      "rest": 1124,
      "Champion": 1125,
      "show": 1126,
      "13": 1127,
      "Dec": 1128,
      "iel": 1129,
      "olog": 1130,
      "Pe": 1131,
      "Pres": 1132,
      "no": 1133,
      "ely": 1134,
      "Man": 1135,
      "vel": 1136,
      "cho": 1137,
      "where": 1138,
      "ptember": 1139,
      "September": 1140,
      "Intern": 1141,
      "movie": 1142,
      "France": 1143,
      "\".": 1144,
      "Cl": 1145,
      "pos": 1146,
      "ale": 1147,
      "There": 1148,
      "Br": 1149,
      "Nov": 1150,
      "National": 1151,
      "row": 1152,
      "istory": 1153,
      "ween": 1154,
      "overn": 1155,
      "aul": 1156,
      "ities": 1157,
      "ouse": 1158,
      "fore": 1159,
      "polit": 1160,
      "ling": 1161,
      "ins": 1162,
      "ai": 1163,
      "during": 1164,
      "ful": 1165,
      "mil": 1166,
      "ance": 1167,
      "ison": 1168,
      "icial": 1169,
      "erson": 1170,
      "League": 1171,
      "cord": 1172,
      "between": 1173,
      "car": 1174,
      "cess": 1175,
      "fin": 1176,
      "than": 1177,
      "2006": 1178,
      "IS": 1179,
      "ITV": 1180,
      "cr": 1181,
      "ger": 1182,
      "gen": 1183,
      "ier": 1184,
      "ros": 1185,
      "Univers": 1186,
      "March": 1187,
      "ep": 1188,
      "won": 1189,
      "igin": 1190,
      "2008": 1191,
      "actor": 1192,
      "spec": 1193,
      "December": 1194,
      "do": 1195,
      "rele": 1196,
      "ama": 1197,
      "three": 1198,
      "ily": 1199,
      "again": 1200,
      "2007": 1201,
      "John": 1202,
      "Fr": 1203,
      "div": 1204,
      "football": 1205,
      "ood": 1206,
      "ali": 1207,
      "under": 1208,
      "area": 1209,
      "dif": 1210,
      "tober": 1211,
      "Oly": 1212,
      "Pol": 1213,
      "Paul": 1214,
      "loc": 1215,
      "ual": 1216,
      "omin": 1217,
      "ille": 1218,
      "prov": 1219,
      "All": 1220,
      "October": 1221,
      "British": 1222,
      "November": 1223,
      "Olymp": 1224,
      "Apr": 1225,
      "Bo": 1226,
      "June": 1227,
      "overnment": 1228,
      "Ad": 1229,
      "Bar": 1230,
      "Fl": 1231,
      "Sw": 1232,
      "him": 1233,
      "then": 1234,
      "areer": 1235,
      "illion": 1236,
      "because": 1237,
      "April": 1238,
      "BN": 1239,
      "Saint": 1240,
      "liv": 1241,
      "chil": 1242,
      "dire": 1243,
      "ISBN": 1244,
      "Cr": 1245,
      "bum": 1246,
      "lish": 1247,
      "sa": 1248,
      "ality": 1249,
      "second": 1250,
      "prof": 1251,
      "After": 1252,
      "ds": 1253,
      "ished": 1254,
      "eng": 1255,
      "former": 1256,
      "Italian": 1257,
      "department": 1258,
      "serv": 1259,
      "0s": 1260,
      "Off": 1261,
      "may": 1262,
      "inter": 1263,
      "number": 1264,
      "30": 1265,
      "City": 1266,
      "Rel": 1267,
      "band": 1268,
      "iet": 1269,
      "jor": 1270,
      "tele": 1271,
      "North": 1272,
      "named": 1273,
      "ae": 1274,
      "ious": 1275,
      "men": 1276,
      "vol": 1277,
      "would": 1278,
      "ism": 1279,
      "uss": 1280,
      "ists": 1281,
      "2010": 1282,
      "website": 1283,
      "Championship": 1284,
      "El": 1285,
      "Me": 1286,
      "Or": 1287,
      "iam": 1288,
      "later": 1289,
      "oon": 1290,
      "ze": 1291,
      "album": 1292,
      "until": 1293,
      "differ": 1294,
      "At": 1295,
      "Bra": 1296,
      "Jap": 1297,
      "Wh": 1298,
      "Will": 1299,
      "ose": 1300,
      "lead": 1301,
      "thern": 1302,
      "bert": 1303,
      "2012": 1304,
      "ific": 1305,
      "000": 1306,
      "series": 1307,
      "help": 1308,
      "English": 1309,
      "Geor": 1310,
      "University": 1311,
      "Japan": 1312,
      "Cent": 1313,
      "ble": 1314,
      "gre": 1315,
      "long": 1316,
      "will": 1317,
      "eral": 1318,
      "bruary": 1319,
      "February": 1320,
      "ail": 1321,
      "ced": 1322,
      "ower": 1323,
      "2005": 1324,
      "ches": 1325,
      "Europe": 1326,
      "July": 1327,
      "23": 1328,
      "mat": 1329,
      "world": 1330,
      "Lu": 1331,
      "River": 1332,
      "coun": 1333,
      "ever": 1334,
      "ois": 1335,
      "such": 1336,
      "zil": 1337,
      "char": 1338,
      "present": 1339,
      "President": 1340,
      "direct": 1341,
      "district": 1342,
      "line": 1343,
      "ually": 1344,
      "water": 1345,
      "arr": 1346,
      "thr": 1347,
      "near": 1348,
      "graphy": 1349,
      "television": 1350,
      "22": 1351,
      "Award": 1352,
      "Ma": 1353,
      "South": 1354,
      "four": 1355,
      "gy": 1356,
      "edia": 1357,
      "rop": 1358,
      "2009": 1359,
      "2013": 1360,
      "different": 1361,
      "Ott": 1362,
      "ces": 1363,
      "ara": 1364,
      "ution": 1365,
      "ock": 1366,
      "ella": 1367,
      "north": 1368,
      "No": 1369,
      "ather": 1370,
      "bur": 1371,
      "dec": 1372,
      "vide": 1373,
      "itt": 1374,
      "road": 1375,
      "place": 1376,
      "come": 1377,
      "profess": 1378,
      "la": 1379,
      "law": 1380,
      "sw": 1381,
      "xt": 1382,
      "ung": 1383,
      "ove": 1384,
      "oss": 1385,
      "189": 1386,
      "Brazil": 1387,
      "Cor": 1388,
      "pre": 1389,
      "sol": 1390,
      "ank": 1391,
      "Ind": 1392,
      "death": 1393,
      "2017": 1394,
      "Ph": 1395,
      "Sc": 1396,
      "gu": 1397,
      "gest": 1398,
      "jo": 1399,
      "live": 1400,
      "lived": 1401,
      "make": 1402,
      "sm": 1403,
      "ven": 1404,
      "hen": 1405,
      "ana": 1406,
      "ement": 1407,
      "try": 1408,
      "aking": 1409,
      "cons": 1410,
      "singer": 1411,
      "Fin": 1412,
      "member": 1413,
      "por": 1414,
      "ville": 1415,
      "ise": 1416,
      "ures": 1417,
      "ockey": 1418,
      "2021": 1419,
      "point": 1420,
      "25": 1421,
      "government": 1422,
      "ler": 1423,
      "life": 1424,
      "ms": 1425,
      "same": 1426,
      "ão": 1427,
      "head": 1428,
      "ator": 1429,
      "icip": 1430,
      "top": 1431,
      "tow": 1432,
      "rog": 1433,
      "iew": 1434,
      "formation": 1435,
      "book": 1436,
      "German": 1437,
      "Related": 1438,
      "24": 1439,
      "Il": 1440,
      "US": 1441,
      "ern": 1442,
      "these": 1443,
      "around": 1444,
      "plac": 1445,
      "Chr": 1446,
      "2011": 1447,
      "capital": 1448,
      "commune": 1449,
      "chool": 1450,
      "ross": 1451,
      "ied": 1452,
      "pages": 1453,
      "well": 1454,
      "ister": 1455,
      "record": 1456,
      "aged": 1457,
      "peri": 1458,
      "Col": 1459,
      "Russ": 1460,
      "We": 1461,
      "War": 1462,
      "bel": 1463,
      "ck": 1464,
      "ox": 1465,
      "tain": 1466,
      "lect": 1467,
      "akes": 1468,
      "veral": 1469,
      "actress": 1470,
      "century": 1471,
      "released": 1472,
      "How": 1473,
      "King": 1474,
      "Lou": 1475,
      "Yor": 1476,
      "best": 1477,
      "frog": 1478,
      "side": 1479,
      "leg": 1480,
      "oper": 1481,
      "istor": 1482,
      "Mont": 1483,
      "started": 1484,
      "ca": 1485,
      "hum": 1486,
      "million": 1487,
      "red": 1488,
      "ench": 1489,
      "ative": 1490,
      "astern": 1491,
      "created": 1492,
      "Co": 1493,
      "His": 1494,
      "Har": 1495,
      "duc": 1496,
      "nia": 1497,
      "sur": 1498,
      "ought": 1499,
      "attack": 1500,
      "International": 1501,
      "said": 1502,
      "York": 1503,
      "bus": 1504,
      "ding": 1505,
      "gh": 1506,
      "ral": 1507,
      "run": 1508,
      "ude": 1509,
      "onom": 1510,
      "ating": 1511,
      "read": 1512,
      "igital": 1513,
      "prison": 1514,
      "early": 1515,
      "angu": 1516,
      "William": 1517,
      "town": 1518,
      "BC": 1519,
      "My": 1520,
      "ft": 1521,
      "get": 1522,
      "ner": 1523,
      "person": 1524,
      "west": 1525,
      "stat": 1526,
      "being": 1527,
      "import": 1528,
      "2004": 1529,
      "2016": 1530,
      "ground": 1531,
      "French": 1532,
      "50": 1533,
      "History": 1534,
      "bers": 1535,
      "career": 1536,
      "ho": 1537,
      "list": 1538,
      "pend": 1539,
      "south": 1540,
      "view": 1541,
      "ys": 1542,
      "zina": 1543,
      "alia": 1544,
      "2019": 1545,
      "These": 1546,
      "rol": 1547,
      "ives": 1548,
      "began": 1549,
      "ulation": 1550,
      "devel": 1551,
      "trans": 1552,
      "press": 1553,
      "ology": 1554,
      "Official": 1555,
      "Part": 1556,
      "Sup": 1557,
      "Te": 1558,
      "Tur": 1559,
      "Vé": 1560,
      "aut": 1561,
      "ject": 1562,
      "ts": 1563,
      "yr": 1564,
      "190": 1565,
      "before": 1566,
      "appe": 1567,
      "ody": 1568,
      "develop": 1569,
      "29": 1570,
      "Ab": 1571,
      "Ne": 1572,
      "bl": 1573,
      "based": 1574,
      "game": 1575,
      "war": 1576,
      "ink": 1577,
      "ald": 1578,
      "Park": 1579,
      "cient": 1580,
      "writer": 1581,
      "major": 1582,
      "public": 1583,
      "video": 1584,
      "Louis": 1585,
      "Vézina": 1586,
      "Os": 1587,
      "Sec": 1588,
      "home": 1589,
      "mand": 1590,
      "national": 1591,
      "since": 1592,
      "origin": 1593,
      "elf": 1594,
      "2015": 1595,
      "gram": 1596,
      "sport": 1597,
      "ried": 1598,
      "ensus": 1599,
      "dren": 1600,
      "2023": 1601,
      "moved": 1602,
      "both": 1603,
      "ultan": 1604,
      "elect": 1605,
      "Green": 1606,
      "through": 1607,
      "important": 1608,
      "Ac": 1609,
      "Min": 1610,
      "Some": 1611,
      "big": 1612,
      "went": 1613,
      "ician": 1614,
      "ster": 1615,
      "several": 1616,
      "lands": 1617,
      "2022": 1618,
      "Afr": 1619,
      "linois": 1620,
      "including": 1621,
      "against": 1622,
      "Olympics": 1623,
      "Illinois": 1624,
      "21": 1625,
      "Bre": 1626,
      "Cali": 1627,
      "Dan": 1628,
      "km": 1629,
      "sup": 1630,
      "ta": 1631,
      "vent": 1632,
      "ony": 1633,
      "order": 1634,
      "fornia": 1635,
      "2002": 1636,
      "formed": 1637,
      "president": 1638,
      "region": 1639,
      "California": 1640,
      "78": 1641,
      "MD": 1642,
      "don": 1643,
      "kill": 1644,
      "soc": 1645,
      "iness": 1646,
      "ened": 1647,
      "stit": 1648,
      "ush": 1649,
      "ott": 1650,
      "plant": 1651,
      "2018": 1652,
      "family": 1653,
      "People": 1654,
      "small": 1655,
      "Go": 1656,
      "cle": 1657,
      "fil": 1658,
      "now": 1659,
      "right": 1660,
      "estern": 1661,
      "stor": 1662,
      "els": 1663,
      "ird": 1664,
      "istics": 1665,
      "app": 1666,
      "popular": 1667,
      "living": 1668,
      "26": 1669,
      "28": 1670,
      "Qu": 1671,
      "rain": 1672,
      "ision": 1673,
      "alt": 1674,
      "real": 1675,
      "took": 1676,
      "set": 1677,
      "2014": 1678,
      "icane": 1679,
      "urricane": 1680,
      "children": 1681,
      "professional": 1682,
      "Bella": 1683,
      "cover": 1684,
      "curr": 1685,
      "each": 1686,
      "light": 1687,
      "mod": 1688,
      "times": 1689,
      "ats": 1690,
      "aly": 1691,
      "often": 1692,
      "omen": 1693,
      "thor": 1694,
      "ago": 1695,
      "State": 1696,
      "ney": 1697,
      "uck": 1698,
      "District": 1699,
      "IMD": 1700,
      "Rich": 1701,
      "could": 1702,
      "did": 1703,
      "arch": 1704,
      "omet": 1705,
      "ute": 1706,
      "ief": 1707,
      "1991": 1708,
      "1999": 1709,
      "Edward": 1710,
      "IMDb": 1711,
      "27": 1712,
      "Games": 1713,
      "São": 1714,
      "Sultan": 1715,
      "games": 1716,
      "win": 1717,
      "ered": 1718,
      "alth": 1719,
      "eds": 1720,
      "stem": 1721,
      "chang": 1722,
      "plants": 1723,
      "2001": 1724,
      "company": 1725,
      "written": 1726,
      "appear": 1727,
      "Air": 1728,
      "Ex": 1729,
      "When": 1730,
      "camp": 1731,
      "net": 1732,
      "van": 1733,
      "yle": 1734,
      "itz": 1735,
      "stud": 1736,
      "see": 1737,
      "ided": 1738,
      "emp": 1739,
      "Reg": 1740,
      "charac": 1741,
      "Emp": 1742,
      "Mic": 1743,
      "Ser": 1744,
      "fiel": 1745,
      "sub": 1746,
      "ays": 1747,
      "depend": 1748,
      "Chic": 1749,
      "ected": 1750,
      "Germany": 1751,
      "built": 1752,
      "Paulo": 1753,
      "ropical": 1754,
      "You": 1755,
      "fol": 1756,
      "pur": 1757,
      "sc": 1758,
      "alk": 1759,
      "ask": 1760,
      "aster": 1761,
      "left": 1762,
      "ste": 1763,
      "thing": 1764,
      "allow": 1765,
      "ophy": 1766,
      "Char": 1767,
      "ample": 1768,
      "overnor": 1769,
      "large": 1770,
      "politician": 1771,
      "31": 1772,
      "Her": 1773,
      "Hockey": 1774,
      "Mil": 1775,
      "Wash": 1776,
      "bre": 1777,
      "body": 1778,
      "county": 1779,
      "ham": 1780,
      "hold": 1781,
      "miss": 1782,
      "sim": 1783,
      "winn": 1784,
      "atch": 1785,
      "itions": 1786,
      "stars": 1787,
      "ington": 1788,
      "istian": 1789,
      "produc": 1790,
      "program": 1791,
      "example": 1792,
      "stru": 1793,
      "Australia": 1794,
      "icipality": 1795,
      "However": 1796,
      "If": 1797,
      "Mo": 1798,
      "NH": 1799,
      "One": 1800,
      "last": 1801,
      "langu": 1802,
      "mem": 1803,
      "sou": 1804,
      "sign": 1805,
      "vers": 1806,
      "anim": 1807,
      "organ": 1808,
      "ada": 1809,
      "chn": 1810,
      "ford": 1811,
      "ains": 1812,
      "Union": 1813,
      "Common": 1814,
      "include": 1815,
      "population": 1816,
      "design": 1817,
      "..": 1818,
      "Mus": 1819,
      "Vol": 1820,
      "how": 1821,
      "host": 1822,
      "house": 1823,
      "lor": 1824,
      "lam": 1825,
      "era": 1826,
      "ones": 1827,
      "atic": 1828,
      "ature": 1829,
      "reat": 1830,
      "chan": 1831,
      "ull": 1832,
      "aver": 1833,
      "produ": 1834,
      "1992": 1835,
      "1994": 1836,
      "America": 1837,
      "compet": 1838,
      "attle": 1839,
      "burg": 1840,
      "Phil": 1841,
      "Am": 1842,
      "Dr": 1843,
      "Hall": 1844,
      "La": 1845,
      "Li": 1846,
      "Not": 1847,
      "West": 1848,
      "ek": 1849,
      "ga": 1850,
      "high": 1851,
      "nd": 1852,
      "oto": 1853,
      "ved": 1854,
      "ons": 1855,
      "ado": 1856,
      "usually": 1857,
      "ounced": 1858,
      "Its": 1859,
      "2000": 1860,
      "ender": 1861,
      "even": 1862,
      "Great": 1863,
      "contin": 1864,
      "milit": 1865,
      "George": 1866,
      "Russian": 1867,
      "human": 1868,
      "60": 1869,
      "Dav": 1870,
      "Ear": 1871,
      "Pac": 1872,
      "Sm": 1873,
      "census": 1874,
      "pp": 1875,
      "power": 1876,
      "====": 1877,
      "ark": 1878,
      "ream": 1879,
      "ured": 1880,
      "Inter": 1881,
      "common": 1882,
      "2003": 1883,
      "ours": 1884,
      "ipp": 1885,
      "1996": 1886,
      "1997": 1887,
      "compu": 1888,
      "offic": 1889,
      "return": 1890,
      "Island": 1891,
      "metal": 1892,
      "restling": 1893,
      "business": 1894,
      "Richard": 1895,
      "Empire": 1896,
      "Bay": 1897,
      "Cam": 1898,
      "Don": 1899,
      "During": 1900,
      "House": 1901,
      "Je": 1902,
      "Pri": 1903,
      "Roman": 1904,
      "Year": 1905,
      "cast": 1906,
      "fr": 1907,
      "ll": 1908,
      "su": 1909,
      "tit": 1910,
      "ene": 1911,
      "edit": 1912,
      "ico": 1913,
      "rem": 1914,
      "stand": 1915,
      "station": 1916,
      "ural": 1917,
      "ired": 1918,
      "ummer": 1919,
      "while": 1920,
      "ourt": 1921,
      "proble": 1922,
      "Under": 1923,
      "plays": 1924,
      "Ang": 1925,
      "England": 1926,
      "famous": 1927,
      "leader": 1928,
      "European": 1929,
      "current": 1930,
      "Ber": 1931,
      "Dis": 1932,
      "FA": 1933,
      "Lond": 1934,
      "Mex": 1935,
      "Sk": 1936,
      "Sy": 1937,
      "iens": 1938,
      "mid": 1939,
      "na": 1940,
      "ined": 1941,
      "arm": 1942,
      "report": 1943,
      "adium": 1944,
      "chrom": 1945,
      "role": 1946,
      "grad": 1947,
      "ments": 1948,
      "good": 1949,
      "Comp": 1950,
      "single": 1951,
      "Robert": 1952,
      "Canada": 1953,
      "Canadiens": 1954,
      "Club": 1955,
      "statistics": 1956,
      "Party": 1957,
      "Greenville": 1958,
      "Po": 1959,
      "Pal": 1960,
      "Res": 1961,
      "Sal": 1962,
      "cy": 1963,
      "eg": 1964,
      "father": 1965,
      "grow": 1966,
      "ises": 1967,
      "island": 1968,
      "still": 1969,
      "ets": 1970,
      "ote": 1971,
      "next": 1972,
      "what": 1973,
      "author": 1974,
      "aff": 1975,
      "ized": 1976,
      "founded": 1977,
      "III": 1978,
      "ible": 1979,
      "groups": 1980,
      "Ottoman": 1981,
      "Michel": 1982,
      "London": 1983,
      "Bel": 1984,
      "Bur": 1985,
      "Ir": 1986,
      "Mc": 1987,
      "Mich": 1988,
      "Rec": 1989,
      "Som": 1990,
      "Sun": 1991,
      "base": 1992,
      "fish": 1993,
      "history": 1994,
      "ially": 1995,
      "lost": 1996,
      "mi": 1997,
      "vill": 1998,
      "itar": 1999,
      "avy": 2000,
      "result": 2001,
      "1936": 2002,
      "annel": 2003,
      "system": 2004,
      "position": 2005,
      "species": 2006,
      "Japanese": 2007,
      "period": 2008,
      "Turk": 2009,
      "Round": 2010,
      "Sam": 2011,
      "dam": 2012,
      "dist": 2013,
      "few": 2014,
      "got": 2015,
      "mo": 2016,
      "school": 2017,
      "self": 2018,
      "another": 2019,
      "amo": 2020,
      "add": 2021,
      "rock": 2022,
      "idence": 2023,
      "become": 2024,
      "aving": 2025,
      "osa": 2026,
      "1993": 2027,
      "1998": 2028,
      "188": 2029,
      "ended": 2030,
      "works": 2031,
      "And": 2032,
      "anger": 2033,
      "2024": 2034,
      "Play": 2035,
      "special": 2036,
      "follow": 2037,
      "100": 2038,
      "Jack": 2039,
      "Most": 2040,
      "Miss": 2041,
      "Media": 2042,
      "Nev": 2043,
      "Val": 2044,
      "ael": 2045,
      "test": 2046,
      "ues": 2047,
      "udi": 2048,
      "anamo": 2049,
      "information": 2050,
      "arn": 2051,
      "ales": 2052,
      "refer": 2053,
      "champion": 2054,
      "ides": 2055,
      "using": 2056,
      "oung": 2057,
      "tri": 2058,
      "cept": 2059,
      "antanamo": 2060,
      "augh": 2061,
      "1983": 2062,
      "1989": 2063,
      "mean": 2064,
      "wood": 2065,
      "feat": 2066,
      "Guantanamo": 2067,
      "musician": 2068,
      "Black": 2069,
      "Luis": 2070,
      "caused": 2071,
      "killed": 2072,
      ".\"": 2073,
      "Lat": 2074,
      "Pop": 2075,
      "San": 2076,
      "Str": 2077,
      "Soc": 2078,
      "Wik": 2079,
      "Wrestling": 2080,
      "cal": 2081,
      "da": 2082,
      "fall": 2083,
      "five": 2084,
      "find": 2085,
      "ges": 2086,
      "prom": 2087,
      "sil": 2088,
      "six": 2089,
      "ves": 2090,
      "held": 2091,
      "inc": 2092,
      "rece": 2093,
      "idge": 2094,
      "plan": 2095,
      "white": 2096,
      "1995": 2097,
      "class": 2098,
      "married": 2099,
      "Australian": 2100,
      "Internet": 2101,
      "ometimes": 2102,
      "978": 2103,
      "Act": 2104,
      "Gen": 2105,
      "List": 2106,
      "Summer": 2107,
      "Tom": 2108,
      "bro": 2109,
      "den": 2110,
      "hon": 2111,
      "late": 2112,
      "much": 2113,
      "vi": 2114,
      "za": 2115,
      "ines": 2116,
      "ised": 2117,
      "along": 2118,
      "adio": 2119,
      "tries": 2120,
      "techn": 2121,
      "1990": 2122,
      "action": 2123,
      "ext": 2124,
      "event": 2125,
      "lik": 2126,
      "uccess": 2127,
      "goals": 2128,
      "sky": 2129,
      "country": 2130,
      "Awards": 2131,
      "prisoners": 2132,
      "military": 2133,
      "04": 2134,
      "09": 2135,
      "Jew": 2136,
      "Mur": 2137,
      "Per": 2138,
      "Sch": 2139,
      "Song": 2140,
      "ban": 2141,
      "dom": 2142,
      "east": 2143,
      "gs": 2144,
      "lim": 2145,
      "mount": 2146,
      "nov": 2147,
      "ness": 2148,
      "oy": 2149,
      "oice": 2150,
      "pes": 2151,
      "put": 2152,
      "tal": 2153,
      "style": 2154,
      "ility": 2155,
      "acc": 2156,
      "roy": 2157,
      "uses": 2158,
      "ency": 2159,
      "Stan": 2160,
      "short": 2161,
      "award": 2162,
      "spir": 2163,
      "1987": 2164,
      "1988": 2165,
      "child": 2166,
      "iety": 2167,
      "Super": 2168,
      "changed": 2169,
      "character": 2170,
      "members": 2171,
      "03": 2172,
      "08": 2173,
      "East": 2174,
      "FI": 2175,
      "Hurricane": 2176,
      "James": 2177,
      "Many": 2178,
      "Red": 2179,
      "Sov": 2180,
      "WE": 2181,
      "came": 2182,
      "cher": 2183,
      "ey": 2184,
      "nal": 2185,
      "pass": 2186,
      "que": 2187,
      "ww": 2188,
      "hes": 2189,
      "intern": 2190,
      "ata": 2191,
      "ases": 2192,
      "ands": 2193,
      "represent": 2194,
      "lete": 2195,
      "und": 2196,
      "osp": 2197,
      "compos": 2198,
      "drama": 2199,
      "reek": 2200,
      "largest": 2201,
      "ministr": 2202,
      "related": 2203,
      "miles": 2204,
      "Brazilian": 2205,
      "Secret": 2206,
      "AA": 2207,
      "Az": 2208,
      "Du": 2209,
      "Ham": 2210,
      "Mad": 2211,
      "Nass": 2212,
      "WWE": 2213,
      "gin": 2214,
      "giv": 2215,
      "gave": 2216,
      "histor": 2217,
      "lov": 2218,
      "less": 2219,
      "tion": 2220,
      "ery": 2221,
      "ices": 2222,
      "ental": 2223,
      "seat": 2224,
      "urch": 2225,
      "ula": 2226,
      "ett": 2227,
      "emy": 2228,
      "ots": 2229,
      "comed": 2230,
      "without": 2231,
      "activ": 2232,
      "club": 2233,
      "word": 2234,
      "pha": 2235,
      "goal": 2236,
      "ossil": 2237,
      "Christian": 2238,
      "village": 2239,
      "34": 2240,
      "ABC": 2241,
      "Cap": 2242,
      "Div": 2243,
      "Em": 2244,
      "Hum": 2245,
      "Kar": 2246,
      "Mov": 2247,
      "Port": 2248,
      "Wil": 2249,
      "ax": 2250,
      "digital": 2251,
      "log": 2252,
      "mit": 2253,
      "ny": 2254,
      "nomin": 2255,
      "ps": 2256,
      "uk": 2257,
      "var": 2258,
      "ord": 2259,
      "educ": 2260,
      "ades": 2261,
      "olina": 2262,
      "seen": 2263,
      "ivil": 2264,
      "ida": 2265,
      "econom": 2266,
      "resp": 2267,
      "phil": 2268,
      "month": 2269,
      "dise": 2270,
      "included": 2271,
      "Book": 2272,
      "Swed": 2273,
      "countries": 2274,
      "places": 2275,
      "field": 2276,
      "Chicago": 2277,
      "holds": 2278,
      "struct": 2279,
      "Michael": 2280,
      "02": 2281,
      "35": 2282,
      "64": 2283,
      "But": 2284,
      "CA": 2285,
      "Cath": 2286,
      "Digital": 2287,
      "Jer": 2288,
      "Jac": 2289,
      "Mor": 2290,
      "Met": 2291,
      "Mart": 2292,
      "NA": 2293,
      "Tag": 2294,
      "ba": 2295,
      "cell": 2296,
      "every": 2297,
      "iation": 2298,
      "nation": 2299,
      "pan": 2300,
      "sen": 2301,
      "success": 2302,
      "tw": 2303,
      "tour": 2304,
      "zy": 2305,
      "{\\": 2306,
      "omb": 2307,
      "ilar": 2308,
      "acy": 2309,
      "aves": 2310,
      "aken": 2311,
      "ampions": 2312,
      "means": 2313,
      "1977": 2314,
      "coast": 2315,
      "announced": 2316,
      "look": 2317,
      "Department": 2318,
      "Grand": 2319,
      "located": 2320,
      "ittle": 2321,
      "Cathol": 2322,
      "70": 2323,
      "Abor": 2324,
      "By": 2325,
      "Governor": 2326,
      "Kat": 2327,
      "Lo": 2328,
      "Ren": 2329,
      "School": 2330,
      "Vir": 2331,
      "Western": 2332,
      "broad": 2333,
      "ctr": 2334,
      "down": 2335,
      "fight": 2336,
      "food": 2337,
      "might": 2338,
      "making": 2339,
      "nect": 2340,
      "sis": 2341,
      "spe": 2342,
      "tor": 2343,
      "tem": 2344,
      "tect": 2345,
      "val": 2346,
      "wine": 2347,
      "icle": 2348,
      "though": 2349,
      "ador": 2350,
      "sea": 2351,
      "sect": 2352,
      "Republic": 2353,
      "exp": 2354,
      "exist": 2355,
      "1980": 2356,
      "riend": 2357,
      "1945": 2358,
      "election": 2359,
      "songs": 2360,
      "1926": 2361,
      "control": 2362,
      "graph": 2363,
      "Carolina": 2364,
      "building": 2365,
      "crip": 2366,
      "Flor": 2367,
      "directed": 2368,
      "pression": 2369,
      "African": 2370,
      "film": 2371,
      "Washington": 2372,
      "David": 2373,
      "computer": 2374,
      "Angel": 2375,
      "received": 2376,
      "Nassau": 2377,
      "Aborigin": 2378,
      "Best": 2379,
      "Ev": 2380,
      "Football": 2381,
      "Law": 2382,
      "Love": 2383,
      "Sen": 2384,
      "Sou": 2385,
      "Ze": 2386,
      "cult": 2387,
      "fur": 2388,
      "fect": 2389,
      "pi": 2390,
      "sent": 2391,
      "ted": 2392,
      "yer": 2393,
      "here": 2394,
      "aria": 2395,
      "itect": 2396,
      "omans": 2397,
      "lege": 2398,
      "league": 2399,
      "third": 2400,
      "idae": 2401,
      "trad": 2402,
      "need": 2403,
      "manag": 2404,
      "ournal": 2405,
      "oney": 2406,
      "type": 2407,
      "oka": 2408,
      "phys": 2409,
      "1942": 2410,
      "central": 2411,
      "official": 2412,
      "ashi": 2413,
      "Thom": 2414,
      "worked": 2415,
      "local": 2416,
      "helped": 2417,
      "Central": 2418,
      "match": 2419,
      "given": 2420,
      "07": 2421,
      "48": 2422,
      "Career": 2423,
      "First": 2424,
      "Greek": 2425,
      "Hy": 2426,
      "Hen": 2427,
      "Life": 2428,
      "Mag": 2429,
      "Sim": 2430,
      "To": 2431,
      "Up": 2432,
      "Vis": 2433,
      "bas": 2434,
      "cities": 2435,
      "eastern": 2436,
      "far": 2437,
      "fossil": 2438,
      "hol": 2439,
      "iy": 2440,
      "mother": 2441,
      "pec": 2442,
      "rac": 2443,
      "sometimes": 2444,
      "anish": 2445,
      "inv": 2446,
      "independ": 2447,
      "ato": 2448,
      "lex": 2449,
      "thought": 2450,
      "imate": 2451,
      "open": 2452,
      "ians": 2453,
      "train": 2454,
      "close": 2455,
      "rail": 2456,
      "complet": 2457,
      "display": 2458,
      "municipality": 2459,
      "northern": 2460,
      "cience": 2461,
      "iki": 2462,
      "capt": 2463,
      "build": 2464,
      "cording": 2465,
      "gypt": 2466,
      "swamp": 2467,
      "cientists": 2468,
      "covered": 2469,
      "NHL": 2470,
      "change": 2471,
      "Soviet": 2472,
      ".,": 2473,
      "2nd": 2474,
      "Dj": 2475,
      "Er": 2476,
      "Fil": 2477,
      "Jim": 2478,
      "Jud": 2479,
      "Med": 2480,
      "Naz": 2481,
      "Tor": 2482,
      "Tour": 2483,
      "Tex": 2484,
      "bit": 2485,
      "cu": 2486,
      "det": 2487,
      "due": 2488,
      "ei": 2489,
      "fact": 2490,
      "hig": 2491,
      "ij": 2492,
      "mb": 2493,
      "ming": 2494,
      "makes": 2495,
      "ning": 2496,
      "rul": 2497,
      "sit": 2498,
      "uz": 2499,
      "vict": 2500,
      "heart": 2501,
      "err": 2502,
      "ont": 2503,
      "ators": 2504,
      "alf": 2505,
      "today": 2506,
      "story": 2507,
      "stadium": 2508,
      "ademy": 2509,
      "ival": 2510,
      "ids": 2511,
      "beg": 2512,
      "becom": 2513,
      "imedia": 2514,
      "ply": 2515,
      "aval": 2516,
      "iano": 2517,
      "tra": 2518,
      "iller": 2519,
      "Arth": 2520,
      "away": 2521,
      "1984": 2522,
      "1986": 2523,
      "phy": 2524,
      "1973": 2525,
      "1941": 2526,
      "days": 2527,
      "Spanish": 2528,
      "published": 2529,
      "ances": 2530,
      "general": 2531,
      "Olympic": 2532,
      "engine": 2533,
      "Atl": 2534,
      "great": 2535,
      "Team": 2536,
      "Africa": 2537,
      "support": 2538,
      "study": 2539,
      "allowed": 2540,
      "similar": 2541,
      "Commons": 2542,
      "Jean": 2543,
      "Prize": 2544,
      "results": 2545,
      "Latin": 2546,
      "Wikimedia": 2547,
      "Catholic": 2548,
      "Virgin": 2549,
      "55": 2550,
      "Bor": 2551,
      "CE": 2552,
      "Cong": 2553,
      "Dem": 2554,
      "Ele": 2555,
      "From": 2556,
      "Histor": 2557,
      "Mir": 2558,
      "Mun": 2559,
      "Nig": 2560,
      "Ol": 2561,
      "Tele": 2562,
      "Ziz": 2563,
      "crit": 2564,
      "dy": 2565,
      "dle": 2566,
      "del": 2567,
      "eff": 2568,
      "gal": 2569,
      "hard": 2570,
      "ior": 2571,
      "ka": 2572,
      "mag": 2573,
      "say": 2574,
      "squ": 2575,
      "take": 2576,
      "ule": 2577,
      "vir": 2578,
      "ense": 2579,
      "atab": 2580,
      "level": 2581,
      "Their": 2582,
      "seven": 2583,
      "ura": 2584,
      "term": 2585,
      "avel": 2586,
      "iana": 2587,
      "tract": 2588,
      "ateg": 2589,
      "expl": 2590,
      "Art": 2591,
      "owned": 2592,
      "1972": 2593,
      "1975": 2594,
      "ization": 2595,
      "1940": 2596,
      "iography": 2597,
      "mark": 2598,
      "poet": 2599,
      "rown": 2600,
      "province": 2601,
      "volution": 2602,
      "Ottomans": 2603,
      "India": 2604,
      "joined": 2605,
      "placed": 2606,
      "black": 2607,
      "Academy": 2608,
      "appeared": 2609,
      "language": 2610,
      "version": 2611,
      "title": 2612,
      "problems": 2613,
      "Nevada": 2614,
      "phabet": 2615,
      "Texas": 2616,
      "Arthur": 2617,
      "AE": 2618,
      "Au": 2619,
      "Bro": 2620,
      "Day": 2621,
      "Eastern": 2622,
      "Gl": 2623,
      "Hon": 2624,
      "Hun": 2625,
      "Mount": 2626,
      "Ret": 2627,
      "Sa": 2628,
      "Tre": 2629,
      "Top": 2630,
      "Town": 2631,
      "bed": 2632,
      "dest": 2633,
      "har": 2634,
      "hmed": 2635,
      "happ": 2636,
      "sound": 2637,
      "saw": 2638,
      "turn": 2639,
      "uel": 2640,
      "inho": 2641,
      "aries": 2642,
      "things": 2643,
      "those": 2644,
      "ached": 2645,
      "across": 2646,
      "adv": 2647,
      "channel": 2648,
      "sett": 2649,
      "ota": 2650,
      "ument": 2651,
      "def": 2652,
      "defe": 2653,
      "berg": 2654,
      "estab": 2655,
      "Champions": 2656,
      "Stor": 2657,
      "odes": 2658,
      "occ": 2659,
      "shar": 2660,
      "earch": 2661,
      "Arab": 2662,
      "1979": 2663,
      "coach": 2664,
      "indic": 2665,
      "1938": 2666,
      "1968": 2667,
      "songwriter": 2668,
      "Before": 2669,
      "Canadian": 2670,
      "Polish": 2671,
      "director": 2672,
      "Minister": 2673,
      "Airport": 2674,
      "Underground": 2675,
      "osaur": 2676,
      "tribut": 2677,
      "Secretary": 2678,
      "Portug": 2679,
      "Aboriginal": 2680,
      "displaystyle": 2681,
      "65": 2682,
      "Ag": 2683,
      "Bec": 2684,
      "CO": 2685,
      "Cze": 2686,
      "Do": 2687,
      "Gold": 2688,
      "Hol": 2689,
      "Later": 2690,
      "Must": 2691,
      "Mises": 2692,
      "So": 2693,
      "bir": 2694,
      "cross": 2695,
      "friend": 2696,
      "having": 2697,
      "half": 2698,
      "mal": 2699,
      "mass": 2700,
      "nic": 2701,
      "ography": 2702,
      "rap": 2703,
      "river": 2704,
      "sl": 2705,
      "sug": 2706,
      "tro": 2707,
      "wa": 2708,
      "western": 2709,
      "women": 2710,
      "you": 2711,
      "ords": 2712,
      "alphabet": 2713,
      "remain": 2714,
      "igr": 2715,
      "ulus": 2716,
      "track": 2717,
      "ability": 2718,
      "ills": 2719,
      "concer": 2720,
      "ouri": 2721,
      "ishop": 2722,
      "active": 2723,
      "afa": 2724,
      "awn": 2725,
      "Ant": 2726,
      "know": 2727,
      "1976": 2728,
      "cancer": 2729,
      "1947": 2730,
      "1932": 2731,
      "maroon": 2732,
      "ways": 2733,
      "color": 2734,
      "relig": 2735,
      "shows": 2736,
      "footballer": 2737,
      "served": 2738,
      "Scott": 2739,
      "guitar": 2740,
      "Kingdom": 2741,
      "km2": 2742,
      "itzer": 2743,
      "Charles": 2744,
      "mission": 2745,
      "gradu": 2746,
      "udio": 2747,
      "novel": 2748,
      "Jacob": 2749,
      "Djado": 2750,
      "Atlant": 2751,
      "Virginia": 2752,
      "Niger": 2753,
      "Zizinho": 2754,
      "):": 2755,
      "05": 2756,
      "Bus": 2757,
      "Bob": 2758,
      "Cal": 2759,
      "Fed": 2760,
      "Kore": 2761,
      "Lab": 2762,
      "Mas": 2763,
      "Mac": 2764,
      "Ple": 2765,
      "Tod": 2766,
      "Uk": 2767,
      "Winn": 2768,
      "burn": 2769,
      "cil": 2770,
      "cel": 2771,
      "cop": 2772,
      "daugh": 2773,
      "hab": 2774,
      "ius": 2775,
      "just": 2776,
      "non": 2777,
      "pa": 2778,
      "ric": 2779,
      "site": 2780,
      "tropical": 2781,
      "vot": 2782,
      "wro": 2783,
      "theast": 2784,
      "isa": 2785,
      "astr": 2786,
      "rec": 2787,
      "reed": 2788,
      "ston": 2789,
      "ament": 2790,
      "20th": 2791,
      "urt": 2792,
      "areas": 2793,
      "Italy": 2794,
      "ocr": 2795,
      "gether": 2796,
      "parts": 2797,
      "awa": 2798,
      "quest": 2799,
      "movies": 2800,
      "brand": 2801,
      "Sea": 2802,
      "center": 2803,
      "1951": 2804,
      "1952": 2805,
      "wards": 2806,
      "strong": 2807,
      "Assoc": 2808,
      "regular": 2809,
      "Death": 2810,
      "Austrian": 2811,
      "Prov": 2812,
      "ski": 2813,
      "political": 2814,
      "Flour": 2815,
      "lives": 2816,
      "Center": 2817,
      "matches": 2818,
      "developed": 2819,
      "donkey": 2820,
      "Milan": 2821,
      "Music": 2822,
      "households": 2823,
      "chromium": 2824,
      "General": 2825,
      "Movie": 2826,
      "wrote": 2827,
      "01": 2828,
      "06": 2829,
      "33": 2830,
      "68": 2831,
      "Da": 2832,
      "FC": 2833,
      "God": 2834,
      "Iran": 2835,
      "Ur": 2836,
      "Wis": 2837,
      "Women": 2838,
      "bi": 2839,
      "die": 2840,
      "equ": 2841,
      "gia": 2842,
      "hockey": 2843,
      "journal": 2844,
      "king": 2845,
      "lot": 2846,
      "race": 2847,
      "tell": 2848,
      "vious": 2849,
      "states": 2850,
      "19th": 2851,
      "olf": 2852,
      "owers": 2853,
      "istan": 2854,
      "ecut": 2855,
      "Information": 2856,
      "avor": 2857,
      "aine": 2858,
      "trib": 2859,
      "Station": 2860,
      "never": 2861,
      "tee": 2862,
      "aug": 2863,
      "audi": 2864,
      "playing": 2865,
      "clos": 2866,
      "ranch": 2867,
      "words": 2868,
      "1982": 2869,
      "1985": 2870,
      "quar": 2871,
      "Leg": 2872,
      "1956": 2873,
      "1966": 2874,
      "Frank": 2875,
      "electr": 2876,
      "flu": 2877,
      "teams": 2878,
      "ancial": 2879,
      "full": 2880,
      "division": 2881,
      "Poland": 2882,
      "White": 2883,
      "books": 2884,
      "oxide": 2885,
      "tainment": 2886,
      "About": 2887,
      "elected": 2888,
      "stitution": 2889,
      "empire": 2890,
      "stead": 2891,
      "producer": 2892,
      "continu": 2893,
      "returned": 2894,
      "baseball": 2895,
      "Jackson": 2896,
      "Stanley": 2897,
      "international": 2898,
      "Sweden": 2899,
      "cription": 2900,
      "Florida": 2901,
      "Thomas": 2902,
      "Hyomin": 2903,
      "Congress": 2904,
      "atabase": 2905,
      "Czech": 2906,
      "Ukrain": 2907,
      "36": 2908,
      "38": 2909,
      "56": 2910,
      "90": 2911,
      "96": 2912,
      "Bush": 2913,
      "Battle": 2914,
      "Cir": 2915,
      "Des": 2916,
      "Del": 2917,
      "Dev": 2918,
      "Egypt": 2919,
      "Hal": 2920,
      "Hom": 2921,
      "Kim": 2922,
      "Lake": 2923,
      "Mer": 2924,
      "Mid": 2925,
      "Opp": 2926,
      "Pak": 2927,
      "Press": 2928,
      "Que": 2929,
      "Ray": 2930,
      "Scientists": 2931,
      "Tay": 2932,
      "Tropical": 2933,
      "UK": 2934,
      "Vi": 2935,
      "cis": 2936,
      "cas": 2937,
      "count": 2938,
      "gun": 2939,
      "ky": 2940,
      "ns": 2941,
      "pet": 2942,
      "ris": 2943,
      "ting": 2944,
      "taken": 2945,
      "wide": 2946,
      "young": 2947,
      "ering": 2948,
      "ati": 2949,
      "learn": 2950,
      "acher": 2951,
      "bey": 2952,
      "unk": 2953,
      "artist": 2954,
      "Chun": 2955,
      "Ste": 2956,
      "process": 2957,
      "party": 2958,
      "1981": 2959,
      "photo": 2960,
      "liament": 2961,
      "1978": 2962,
      "move": 2963,
      "ched": 2964,
      "board": 2965,
      "Nord": 2966,
      "1959": 2967,
      "mostly": 2968,
      "Jose": 2969,
      "That": 2970,
      "working": 2971,
      "media": 2972,
      "itional": 2973,
      "1924": 2974,
      "Oculus": 2975,
      "enna": 2976,
      "does": 2977,
      "Max": 2978,
      "consid": 2979,
      "attacks": 2980,
      "original": 2981,
      "sports": 2982,
      "Daniel": 2983,
      "modern": 2984,
      "architect": 2985,
      "winning": 2986,
      "southern": 2987,
      "Pacific": 2988,
      "currently": 2989,
      "Records": 2990,
      "successful": 2991,
      "piec": 2992,
      "Henry": 2993,
      "AEW": 2994,
      "Mustafa": 2995,
      "1st": 2996,
      "42": 2997,
      "57": 2998,
      "Base": 2999,
      "Coun": 3000,
      "Cast": 3001,
      "Court": 3002,
      "Domin": 3003,
      "Dism": 3004,
      "Gar": 3005,
      "Government": 3006,
      "Han": 3007,
      "Hashi": 3008,
      "Just": 3009,
      "Mat": 3010,
      "Mass": 3011,
      "Nik": 3012,
      "Out": 3013,
      "Pier": 3014,
      "Rob": 3015,
      "Till": 3016,
      "Vict": 3017,
      "With": 3018,
      "billion": 3019,
      "case": 3020,
      "cause": 3021,
      "doc": 3022,
      "eas": 3023,
      "fun": 3024,
      "fem": 3025,
      "fire": 3026,
      "hu": 3027,
      "hand": 3028,
      "lished": 3029,
      "pen": 3030,
      "pers": 3031,
      "post": 3032,
      "radio": 3033,
      "sal": 3034,
      "says": 3035,
      "yal": 3036,
      "ér": 3037,
      "ini": 3038,
      "inese": 3039,
      "inosaur": 3040,
      "onto": 3041,
      "ener": 3042,
      "atives": 3043,
      "ita": 3044,
      "recent": 3045,
      "oma": 3046,
      "together": 3047,
      "least": 3048,
      "stage": 3049,
      "amed": 3050,
      "eli": 3051,
      "sey": 3052,
      "uri": 3053,
      "irl": 3054,
      "univers": 3055,
      "iga": 3056,
      "opened": 3057,
      "otel": 3058,
      "ained": 3059,
      "Chrom": 3060,
      "Chief": 3061,
      "Church": 3062,
      "Chinese": 3063,
      "illa": 3064,
      "aker": 3065,
      "const": 3066,
      "text": 3067,
      "grand": 3068,
      "iff": 3069,
      "pron": 3070,
      "ects": 3071,
      "ques": 3072,
      "mega": 3073,
      "chem": 3074,
      "forms": 3075,
      "1930": 3076,
      "Commun": 3077,
      "office": 3078,
      "collect": 3079,
      "Austria": 3080,
      "Spain": 3081,
      "seasons": 3082,
      "publican": 3083,
      "Carl": 3084,
      "Manche": 3085,
      "poss": 3086,
      "finished": 3087,
      "Swamp": 3088,
      "districts": 3089,
      "Russia": 3090,
      "runner": 3091,
      "development": 3092,
      "winner": 3093,
      "competed": 3094,
      "Mexico": 3095,
      "Company": 3096,
      "damage": 3097,
      "Missouri": 3098,
      "meaning": 3099,
      "technology": 3100,
      "temper": 3101,
      "Democr": 3102,
      "critic": 3103,
      "established": 3104,
      "Today": 3105,
      "Association": 3106,
      "Oppong": 3107,
      "Dismal": 3108,
      "Hashioka": 3109,
      "Victor": 3110,
      "43": 3111,
      "46": 3112,
      "84": 3113,
      "Bell": 3114,
      "Broad": 3115,
      "Bank": 3116,
      "Card": 3117,
      "Dor": 3118,
      "Dam": 3119,
      "Ever": 3120,
      "Hung": 3121,
      "Jos": 3122,
      "Los": 3123,
      "More": 3124,
      "Muse": 3125,
      "Nash": 3126,
      "Old": 3127,
      "Penn": 3128,
      "Rhe": 3129,
      "Rio": 3130,
      "SR": 3131,
      "Sing": 3132,
      "Sant": 3133,
      "Sport": 3134,
      "bon": 3135,
      "bia": 3136,
      "bass": 3137,
      "gl": 3138,
      "gent": 3139,
      "hor": 3140,
      "hurricane": 3141,
      "ker": 3142,
      "love": 3143,
      "lvan": 3144,
      "mix": 3145,
      "ni": 3146,
      "night": 3147,
      "niss": 3148,
      "oor": 3149,
      "ror": 3150,
      "science": 3151,
      "tre": 3152,
      "uese": 3153,
      "wall": 3154,
      "wife": 3155,
      "wrest": 3156,
      "yn": 3157,
      "zburg": 3158,
      "health": 3159,
      "ino": 3160,
      "invol": 3161,
      "espec": 3162,
      "anda": 3163,
      "ander": 3164,
      "icks": 3165,
      "ications": 3166,
      "reached": 3167,
      "star": 3168,
      "starr": 3169,
      "among": 3170,
      "amount": 3171,
      "thod": 3172,
      "aces": 3173,
      "eld": 3174,
      "owa": 3175,
      "ump": 3176,
      "comes": 3177,
      "above": 3178,
      "Choice": 3179,
      "connect": 3180,
      "teen": 3181,
      "ified": 3182,
      "ources": 3183,
      "execut": 3184,
      "ending": 3185,
      "keep": 3186,
      "achute": 3187,
      "idea": 3188,
      "ogn": 3189,
      "meas": 3190,
      "ansas": 3191,
      "iction": 3192,
      "1974": 3193,
      "2025": 3194,
      "movement": 3195,
      "bridge": 3196,
      "Normand": 3197,
      "1957": 3198,
      "1958": 3199,
      "Francis": 3200,
      "sylvan": 3201,
      "starting": 3202,
      "epis": 3203,
      "divided": 3204,
      "Barb": 3205,
      "Georgia": 3206,
      "Major": 3207,
      "Corn": 3208,
      "belie": 3209,
      "Coast": 3210,
      "originally": 3211,
      "According": 3212,
      "Bremen": 3213,
      "score": 3214,
      "languages": 3215,
      "...": 3216,
      "production": 3217,
      "Earth": 3218,
      "likely": 3219,
      "composer": 3220,
      "disease": 3221,
      "NAS": 3222,
      "panic": 3223,
      "Katniss": 3224,
      "Visay": 3225,
      "Nazi": 3226,
      "becoming": 3227,
      "Mirpur": 3228,
      "defeated": 3229,
      "Portuguese": 3230,
      "Normandy": 3231,
      "sylvania": 3232,
      "//": 3233,
      "2Pac": 3234,
      "89": 3235,
      "97": 3236,
      "://": 3237,
      "Ap": 3238,
      "Bad": 3239,
      "Bun": 3240,
      "Bill": 3241,
      "Cop": 3242,
      "Database": 3243,
      "Far": 3244,
      "Fur": 3245,
      "Gal": 3246,
      "Gav": 3247,
      "Ho": 3248,
      "Home": 3249,
      "Iowa": 3250,
      "Mel": 3251,
      "Mos": 3252,
      "Mah": 3253,
      "Night": 3254,
      "Omega": 3255,
      "Pre": 3256,
      "Rock": 3257,
      "Since": 3258,
      "aj": 3259,
      "cost": 3260,
      "court": 3261,
      "foc": 3262,
      "free": 3263,
      "gold": 3264,
      "hun": 3265,
      "hosp": 3266,
      "ju": 3267,
      "ode": 3268,
      "pay": 3269,
      "spr": 3270,
      "stop": 3271,
      "ux": 3272,
      "want": 3273,
      "ya": 3274,
      "án": 3275,
      "ón": 3276,
      "eration": 3277,
      "online": 3278,
      "oral": 3279,
      "army": 3280,
      "almost": 3281,
      "ites": 3282,
      "ically": 3283,
      "icular": 3284,
      "reme": 3285,
      "oul": 3286,
      "too": 3287,
      "adel": 3288,
      "administr": 3289,
      "separ": 3290,
      "ops": 3291,
      "avail": 3292,
      "Republican": 3293,
      "debut": 3294,
      "eston": 3295,
      "tran": 3296,
      "cean": 3297,
      "players": 3298,
      "htt": 3299,
      "phos": 3300,
      "ribut": 3301,
      "1970": 3302,
      "Leon": 3303,
      "1944": 3304,
      "1948": 3305,
      "1934": 3306,
      "Commit": 3307,
      "1955": 3308,
      "Enter": 3309,
      "1962": 3310,
      "creen": 3311,
      "lines": 3312,
      "desc": 3313,
      "communities": 3314,
      "Presley": 3315,
      "Bras": 3316,
      "Adam": 3317,
      "service": 3318,
      "Mehmed": 3319,
      "ification": 3320,
      "green": 3321,
      "decided": 3322,
      "laun": 3323,
      "Corpor": 3324,
      "Scot": 3325,
      "storm": 3326,
      "designed": 3327,
      "Notes": 3328,
      "Smith": 3329,
      "editing": 3330,
      "Mexican": 3331,
      "reported": 3332,
      "cycl": 3333,
      "eggs": 3334,
      "championship": 3335,
      "FIFA": 3336,
      "passed": 3337,
      "various": 3338,
      "structure": 3339,
      "fossils": 3340,
      "Municipality": 3341,
      "Manchester": 3342,
      "especially": 3343,
      "32": 3344,
      "37": 3345,
      "39": 3346,
      "40": 3347,
      "58": 3348,
      "77": 3349,
      "99": 3350,
      "CD": 3351,
      "Fame": 3352,
      "Fair": 3353,
      "Gh": 3354,
      "Gall": 3355,
      "High": 3356,
      "IT": 3357,
      "Ke": 3358,
      "Kr": 3359,
      "Line": 3360,
      "ME": 3361,
      "Mi": 3362,
      "Mal": 3363,
      "NE": 3364,
      "Ni": 3365,
      "Pan": 3366,
      "Pap": 3367,
      "Rh": 3368,
      "Sto": 3369,
      "Ty": 3370,
      "VI": 3371,
      "Wales": 3372,
      "aign": 3373,
      "bot": 3374,
      "battle": 3375,
      "cit": 3376,
      "cos": 3377,
      "civil": 3378,
      "danger": 3379,
      "governor": 3380,
      "hours": 3381,
      "je": 3382,
      "jan": 3383,
      "kil": 3384,
      "nes": 3385,
      "nom": 3386,
      "obs": 3387,
      "round": 3388,
      "scor": 3389,
      "treat": 3390,
      "uan": 3391,
      "vin": 3392,
      "von": 3393,
      "ving": 3394,
      "vamp": 3395,
      "wan": 3396,
      "wid": 3397,
      "zie": 3398,
      "heavy": 3399,
      "ona": 3400,
      "orate": 3401,
      "ouble": 3402,
      "oms": 3403,
      "stay": 3404,
      "studio": 3405,
      "think": 3406,
      "entire": 3407,
      "sec": 3408,
      "seeds": 3409,
      "user": 3410,
      "imi": 3411,
      "ope": 3412,
      "ploy": 3413,
      "ums": 3414,
      "research": 3415,
      "comb": 3416,
      "utes": 3417,
      "within": 3418,
      "ably": 3419,
      "priv": 3420,
      "project": 3421,
      "ears": 3422,
      "types": 3423,
      "Ann": 3424,
      "complete": 3425,
      "evidence": 3426,
      "1970s": 3427,
      "ize": 3428,
      "1939": 3429,
      "object": 3430,
      "disorder": 3431,
      "Shar": 3432,
      "1950": 3433,
      "1960": 3434,
      "1963": 3435,
      "1964": 3436,
      "flat": 3437,
      "visit": 3438,
      "asha": 3439,
      "ustrial": 3440,
      "medal": 3441,
      "musical": 3442,
      "colum": 3443,
      "themat": 3444,
      "feet": 3445,
      "duct": 3446,
      "Group": 3447,
      "ledge": 3448,
      "includes": 3449,
      "fully": 3450,
      "ength": 3451,
      "bands": 3452,
      "While": 3453,
      "longer": 3454,
      "points": 3455,
      "Chris": 3456,
      "recorded": 3457,
      "rights": 3458,
      "network": 3459,
      "signed": 3460,
      "average": 3461,
      "Palace": 3462,
      "Turkish": 3463,
      "calend": 3464,
      "brother": 3465,
      "nominated": 3466,
      "Angeles": 3467,
      "Southern": 3468,
      "captured": 3469,
      "occup": 3470,
      "journalist": 3471,
      "Taylor": 3472,
      "Pierre": 3473,
      "Gaveston": 3474,
      "available": 3475,
      "Committee": 3476,
      "Corporation": 3477,
      "45": 3478,
      "98": 3479,
      "Alex": 3480,
      "Bas": 3481,
      "Big": 3482,
      "Bul": 3483,
      "Biography": 3484,
      "Econ": 3485,
      "FL": 3486,
      "Good": 3487,
      "Hit": 3488,
      "Jon": 3489,
      "Les": 3490,
      "Mary": 3491,
      "Mend": 3492,
      "Nas": 3493,
      "Of": 3494,
      "Pat": 3495,
      "Tran": 3496,
      "Wall": 3497,
      "bad": 3498,
      "bour": 3499,
      "bra": 3500,
      "dem": 3501,
      "ee": 3502,
      "fast": 3503,
      "foot": 3504,
      "gam": 3505,
      "han": 3506,
      "iro": 3507,
      "iest": 3508,
      "kin": 3509,
      "len": 3510,
      "lit": 3511,
      "little": 3512,
      "must": 3513,
      "pal": 3514,
      "ped": 3515,
      "ple": 3516,
      "ron": 3517,
      "ren": 3518,
      "ram": 3519,
      "va": 3520,
      "wind": 3521,
      "inf": 3522,
      "invent": 3523,
      "ert": 3524,
      "ester": 3525,
      "icles": 3526,
      "rew": 3527,
      "reason": 3528,
      "stations": 3529,
      "stream": 3530,
      "ampl": 3531,
      "access": 3532,
      "enter": 3533,
      "Then": 3534,
      "ols": 3535,
      "agu": 3536,
      "imin": 3537,
      "imar": 3538,
      "umin": 3539,
      "Instit": 3540,
      "appoint": 3541,
      "Represent": 3542,
      "travel": 3543,
      "conson": 3544,
      "weak": 3545,
      "week": 3546,
      "border": 3547,
      "ips": 3548,
      "earli": 3549,
      "experi": 3550,
      "quick": 3551,
      "events": 3552,
      "Mark": 3553,
      "Americans": 3554,
      "1946": 3555,
      "1949": 3556,
      "box": 3557,
      "1931": 3558,
      "1933": 3559,
      "1935": 3560,
      "Shock": 3561,
      "1961": 3562,
      "Paris": 3563,
      "Parachute": 3564,
      "regional": 3565,
      "lood": 3566,
      "better": 3567,
      "retired": 3568,
      "something": 3569,
      "news": 3570,
      "nament": 3571,
      "Spinosaur": 3572,
      "Prime": 3573,
      "mainly": 3574,
      "letter": 3575,
      "Geography": 3576,
      "Peter": 3577,
      "posed": 3578,
      "Championships": 3579,
      "What": 3580,
      "previous": 3581,
      "College": 3582,
      "onomy": 3583,
      "campaign": 3584,
      "powerful": 3585,
      "middle": 3586,
      "www": 3587,
      "logo": 3588,
      "culture": 3589,
      "square": 3590,
      "Hunger": 3591,
      "destroy": 3592,
      "religious": 3593,
      "daughter": 3594,
      "Vienna": 3595,
      "Joseph": 3596,
      "Council": 3597,
      "Tillerson": 3598,
      "Visayas": 3599,
      "Econom": 3600,
      ",\"": 3601,
      "350": 3602,
      "53": 3603,
      "66": 3604,
      "88": 3605,
      "Ash": 3606,
      "Back": 3607,
      "CM": 3608,
      "Down": 3609,
      "EP": 3610,
      "Eli": 3611,
      "Fam": 3612,
      "Ha": 3613,
      "Haut": 3614,
      "Ki": 3615,
      "Lim": 3616,
      "OS": 3617,
      "Publ": 3618,
      "Pasha": 3619,
      "Time": 3620,
      "Two": 3621,
      "Wake": 3622,
      "Wood": 3623,
      "Young": 3624,
      "ais": 3625,
      "aim": 3626,
      "bai": 3627,
      "bishop": 3628,
      "cat": 3629,
      "coup": 3630,
      "fell": 3631,
      "ged": 3632,
      "gans": 3633,
      "hous": 3634,
      "ient": 3635,
      "loss": 3636,
      "mess": 3637,
      "mud": 3638,
      "oid": 3639,
      "sold": 3640,
      "slow": 3641,
      "screen": 3642,
      "ties": 3643,
      "vice": 3644,
      "wil": 3645,
      "hest": 3646,
      "hero": 3647,
      "ination": 3648,
      "instead": 3649,
      "ero": 3650,
      "ories": 3651,
      "islands": 3652,
      "ena": 3653,
      "atural": 3654,
      "aland": 3655,
      "alog": 3656,
      "andel": 3657,
      "ref": 3658,
      "replaced": 3659,
      "total": 3660,
      "stu": 3661,
      "ads": 3662,
      "ola": 3663,
      "sex": 3664,
      "iving": 3665,
      "termin": 3666,
      "unn": 3667,
      "agh": 3668,
      "oph": 3669,
      "eman": 3670,
      "employ": 3671,
      "plann": 3672,
      "ava": 3673,
      "comm": 3674,
      "comot": 3675,
      "fered": 3676,
      "oso": 3677,
      "osen": 3678,
      "Chile": 3679,
      "weight": 3680,
      "ocal": 3681,
      "shown": 3682,
      "should": 3683,
      "ards": 3684,
      "ift": 3685,
      "ource": 3686,
      "pred": 3687,
      "ishing": 3688,
      "except": 3689,
      "ends": 3690,
      "outimi": 3691,
      "oking": 3692,
      "1980s": 3693,
      "ensity": 3694,
      "evol": 3695,
      "driver": 3696,
      "Lee": 3697,
      "athan": 3698,
      "goalt": 3699,
      "1967": 3700,
      "airport": 3701,
      "Joe": 3702,
      "leyball": 3703,
      "1927": 3704,
      "Def": 3705,
      "Monte": 3706,
      "certain": 3707,
      "inning": 3708,
      "Prince": 3709,
      "vey": 3710,
      "Trump": 3711,
      "nearly": 3712,
      "soldi": 3713,
      "ready": 3714,
      "reading": 3715,
      "Myster": 3716,
      "personality": 3717,
      "Second": 3718,
      "Chicoutimi": 3719,
      "break": 3720,
      "problem": 3721,
      "Berlin": 3722,
      "Salzburg": 3723,
      "philos": 3724,
      "Martin": 3725,
      "manager": 3726,
      "completed": 3727,
      "either": 3728,
      "viron": 3729,
      "Busch": 3730,
      "Korean": 3731,
      "Winners": 3732,
      "continued": 3733,
      "Halime": 3734,
      "Baseball": 3735,
      "temperature": 3736,
      "Pennsylvania": 3737,
      "phosph": 3738,
      "Entertainment": 3739,
      "descri": 3740,
      "calendar": 3741,
      "Mysterio": 3742,
      "\")": 3743,
      ".[": 3744,
      "47": 3745,
      "87": 3746,
      "Bi": 3747,
      "BBC": 3748,
      "Che": 3749,
      "Cross": 3750,
      "Census": 3751,
      "EFA": 3752,
      "Fiel": 3753,
      "Hay": 3754,
      "IN": 3755,
      "Kub": 3756,
      "Kev": 3757,
      "LP": 3758,
      "Ly": 3759,
      "Lar": 3760,
      "Mr": 3761,
      "Mem": 3762,
      "Mod": 3763,
      "Over": 3764,
      "PA": 3765,
      "Pet": 3766,
      "Prem": 3767,
      "Ron": 3768,
      "Sil": 3769,
      "Tu": 3770,
      "Tenn": 3771,
      "UEFA": 3772,
      "Winter": 3773,
      "bar": 3774,
      "cir": 3775,
      "cars": 3776,
      "fed": 3777,
      "gian": 3778,
      "god": 3779,
      "gress": 3780,
      "ha": 3781,
      "hom": 3782,
      "ique": 3783,
      "los": 3784,
      "length": 3785,
      "mes": 3786,
      "mult": 3787,
      "money": 3788,
      "migr": 3789,
      "nec": 3790,
      "nine": 3791,
      "nake": 3792,
      "names": 3793,
      "pat": 3794,
      "pair": 3795,
      "rd": 3796,
      "sister": 3797,
      "tar": 3798,
      "yl": 3799,
      "ane": 3800,
      "influ": 3801,
      "erbai": 3802,
      "isp": 3803,
      "isters": 3804,
      "arrest": 3805,
      "atre": 3806,
      "ately": 3807,
      "alter": 3808,
      "itage": 3809,
      "reach": 3810,
      "told": 3811,
      "stant": 3812,
      "thous": 3813,
      "chair": 3814,
      "roc": 3815,
      "ropolit": 3816,
      "forest": 3817,
      "forman": 3818,
      "ively": 3819,
      "ira": 3820,
      "beh": 3821,
      "ules": 3822,
      "eta": 3823,
      "ems": 3824,
      "ape": 3825,
      "article": 3826,
      "dead": 3827,
      "berra": 3828,
      "peak": 3829,
      "Story": 3830,
      "Argent": 3831,
      "particular": 3832,
      "spap": 3833,
      "ights": 3834,
      "phia": 3835,
      "raised": 3836,
      "dry": 3837,
      "chen": 3838,
      "cography": 3839,
      "irel": 3840,
      "1969": 3841,
      "intro": 3842,
      "Parliament": 3843,
      "flower": 3844,
      "Canberra": 3845,
      "lark": 3846,
      "someone": 3847,
      "1923": 3848,
      "write": 3849,
      "Protect": 3850,
      "ancy": 3851,
      "lower": 3852,
      "conditions": 3853,
      "park": 3854,
      "Administr": 3855,
      "Office": 3856,
      "Georges": 3857,
      "northwest": 3858,
      "videos": 3859,
      "lawyer": 3860,
      "consin": 3861,
      "Final": 3862,
      "opera": 3863,
      "Montreal": 3864,
      "Nether": 3865,
      "Osman": 3866,
      "model": 3867,
      "characters": 3868,
      "ophyta": 3869,
      "Washburn": 3870,
      "produced": 3871,
      "struction": 3872,
      "animals": 3873,
      "Philipp": 3874,
      "Philadel": 3875,
      "Early": 3876,
      "Syd": 3877,
      "Point": 3878,
      "Pope": 3879,
      "Social": 3880,
      "Jews": 3881,
      "Jewish": 3882,
      "Azerbai": 3883,
      "comedian": 3884,
      "Division": 3885,
      "education": 3886,
      "months": 3887,
      "broadcast": 3888,
      "Senate": 3889,
      "independent": 3890,
      "cuit": 3891,
      "beginning": 3892,
      "Television": 3893,
      "turned": 3894,
      "suggest": 3895,
      "maroons": 3896,
      "habit": 3897,
      "Daiki": 3898,
      "avorite": 3899,
      "aught": 3900,
      "guns": 3901,
      "Castle": 3902,
      "female": 3903,
      "Chromium": 3904,
      "Cardin": 3905,
      "Museum": 3906,
      "executive": 3907,
      "transport": 3908,
      "Scotland": 3909,
      "widely": 3910,
      "Hitler": 3911,
      "Mendel": 3912,
      "consonants": 3913,
      "Spinosaurus": 3914,
      "vironment": 3915,
      "Kevin": 3916,
      "Philadelphia": 3917,
      "Azerbaijan": 3918,
      "(\"": 3919,
      "300": 3920,
      "BM": 3921,
      "Bir": 3922,
      "CU": 3923,
      "Cub": 3924,
      "Civil": 3925,
      "Dream": 3926,
      "Dawn": 3927,
      "Fox": 3928,
      "Hig": 3929,
      "Im": 3930,
      "Ire": 3931,
      "Jay": 3932,
      "Kenn": 3933,
      "Kansas": 3934,
      "Kirel": 3935,
      "Lad": 3936,
      "Lie": 3937,
      "Mö": 3938,
      "Niz": 3939,
      "Nations": 3940,
      "Pul": 3941,
      "Post": 3942,
      "Raw": 3943,
      "Radio": 3944,
      "Sar": 3945,
      "Scor": 3946,
      "Tim": 3947,
      "Umay": 3948,
      "Ven": 3949,
      "Wel": 3950,
      "ault": 3951,
      "bac": 3952,
      "bay": 3953,
      "baugh": 3954,
      "catch": 3955,
      "dir": 3956,
      "date": 3957,
      "data": 3958,
      "eight": 3959,
      "fir": 3960,
      "hi": 3961,
      "hip": 3962,
      "ien": 3963,
      "ko": 3964,
      "ls": 3965,
      "lab": 3966,
      "mot": 3967,
      "muse": 3968,
      "mese": 3969,
      "pun": 3970,
      "pot": 3971,
      "pack": 3972,
      "pret": 3973,
      "rh": 3974,
      "ru": 3975,
      "sus": 3976,
      "taking": 3977,
      "uation": 3978,
      "uff": 3979,
      "vote": 3980,
      "voice": 3981,
      "yo": 3982,
      "anall": 3983,
      "once": 3984,
      "isher": 3985,
      "already": 3986,
      "andid": 3987,
      "icine": 3988,
      "reet": 3989,
      "react": 3990,
      "review": 3991,
      "store": 3992,
      "1918": 3993,
      "ilies": 3994,
      "room": 3995,
      "roles": 3996,
      "section": 3997,
      "idual": 3998,
      "beth": 3999,
      "agn": 4000,
      "ows": 4001,
      "ements": 4002,
      "otic": 4003,
      "appro": 4004,
      "Revolution": 4005,
      "commer": 4006,
      "defin": 4007,
      "depression": 4008,
      "abs": 4009,
      "China": 4010,
      "Chlo": 4011,
      "illness": 4012,
      "Stadium": 4013,
      "wealth": 4014,
      "ounds": 4015,
      "print": 4016,
      "protect": 4017,
      "exper": 4018,
      "climate": 4019,
      "elling": 4020,
      "Alab": 4021,
      "performed": 4022,
      "qual": 4023,
      "ension": 4024,
      "ensive": 4025,
      "1971": 4026,
      "chest": 4027,
      "1943": 4028,
      "boy": 4029,
      "Northern": 4030,
      "See": 4031,
      "goes": 4032,
      "1953": 4033,
      "oldest": 4034,
      "itself": 4035,
      "Paraly": 4036,
      "elements": 4037,
      "tons": 4038,
      "founder": 4039,
      "Three": 4040,
      "medical": 4041,
      "1928": 4042,
      "mathemat": 4043,
      "Isra": 4044,
      "Spec": 4045,
      "Beach": 4046,
      "myth": 4047,
      "metres": 4048,
      "ighth": 4049,
      "ological": 4050,
      "ITV1": 4051,
      "himself": 4052,
      "Order": 4053,
      "ailed": 4054,
      "itted": 4055,
      "professor": 4056,
      "Indian": 4057,
      "Financial": 4058,
      "Christ": 4059,
      "Colum": 4060,
      "Cook": 4061,
      "Breaking": 4062,
      "clear": 4063,
      "stein": 4064,
      "officer": 4065,
      "Campe": 4066,
      "Burmese": 4067,
      "Somali": 4068,
      "Turkic": 4069,
      "followed": 4070,
      "promot": 4071,
      "awards": 4072,
      "chers": 4073,
      "Duke": 4074,
      "comedy": 4075,
      "Human": 4076,
      "economic": 4077,
      "baby": 4078,
      "traditional": 4079,
      "holes": 4080,
      "highest": 4081,
      "victory": 4082,
      "Honours": 4083,
      "Storm": 4084,
      "Atlantic": 4085,
      "recogn": 4086,
      "Province": 4087,
      "Wisconsin": 4088,
      "tribes": 4089,
      "Pakistan": 4090,
      "considered": 4091,
      "constell": 4092,
      "chemical": 4093,
      "possible": 4094,
      "wrestler": 4095
    },
    "merges": [
      [
        "h",
        "e"
      ],
      [
        "a",
        "n"
      ],
      [
        "i",
        "n"
      ],
      [
        "e",
        "r"
      ],
      [
        "t",
        "he"
      ],
      [
        "o",
        "n"
      ],
      [
        "o",
        "r"
      ],
      [
        "e",
        "s"
      ],
      [
        "=",
        "="
      ],
      [
        "i",
        "s"
      ],
      [
        "a",
        "r"
      ],
      [
        "e",
        "n"
      ],
      [
        "a",
        "t"
      ],
      [
        "a",
        "l"
      ],
      [
        "e",
        "d"
      ],
      [
        "a",
        "s"
      ],
      [
        "i",
        "t"
      ],
      [
        "o",
        "f"
      ],
      [
        "an",
        "d"
      ],
      [
        "i",
        "c"
      ],
      [
        "r",
        "e"
      ],
      [
        "o",
        "u"
      ],
      [
        "o",
        "m"
      ],
      [
        "t",
        "o"
      ],
      [
        "l",
        "e"
      ],
      [
        "s",
        "t"
      ],
      [
        "i",
        "on"
      ],
      [
        "in",
        "g"
      ],
      [
        "a",
        "m"
      ],
      [
        "t",
        "h"
      ],
      [
        "1",
        "9"
      ],
      [
        "i",
        "l"
      ],
      [
        "a",
        "c"
      ],
      [
        "2",
        "0"
      ],
      [
        "en",
        "t"
      ],
      [
        "T",
        "he"
      ],
      [
        "a",
        "d"
      ],
      [
        "e",
        "l"
      ],
      [
        "c",
        "h"
      ],
      [
        "r",
        "o"
      ],
      [
        "w",
        "as"
      ],
      [
        "a",
        "y"
      ],
      [
        "o",
        "l"
      ],
      [
        "s",
        "e"
      ],
      [
        "f",
        "or"
      ],
      [
        "u",
        "r"
      ],
      [
        "i",
        "v"
      ],
      [
        "t",
        "er"
      ],
      [
        "i",
        "d"
      ],
      [
        "i",
        "r"
      ],
      [
        "b",
        "e"
      ],
      [
        "u",
        "n"
      ],
      [
        "a",
        "g"
      ],
      [
        "u",
        "s"
      ],
      [
        "i",
        "m"
      ],
      [
        "al",
        "l"
      ],
      [
        "o",
        "w"
      ],
      [
        "at",
        "ion"
      ],
      [
        "i",
        "g"
      ],
      [
        "o",
        "p"
      ],
      [
        "u",
        "l"
      ],
      [
        "o",
        "v"
      ],
      [
        "is",
        "t"
      ],
      [
        "e",
        "t"
      ],
      [
        "e",
        "m"
      ],
      [
        "ou",
        "n"
      ],
      [
        "o",
        "t"
      ],
      [
        "r",
        "om"
      ],
      [
        "p",
        "l"
      ],
      [
        "e",
        "c"
      ],
      [
        "en",
        "c"
      ],
      [
        "ar",
        "e"
      ],
      [
        "I",
        "t"
      ],
      [
        "er",
        "s"
      ],
      [
        "u",
        "m"
      ],
      [
        "I",
        "n"
      ],
      [
        "b",
        "y"
      ],
      [
        "a",
        "p"
      ],
      [
        "a",
        "v"
      ],
      [
        "r",
        "es"
      ],
      [
        "the",
        "r"
      ],
      [
        "ar",
        "t"
      ],
      [
        "R",
        "e"
      ],
      [
        "c",
        "om"
      ],
      [
        "i",
        "an"
      ],
      [
        "d",
        "e"
      ],
      [
        "f",
        "er"
      ],
      [
        "i",
        "a"
      ],
      [
        "b",
        "er"
      ],
      [
        "l",
        "y"
      ],
      [
        "==",
        "="
      ],
      [
        "it",
        "h"
      ],
      [
        "f",
        "rom"
      ],
      [
        "20",
        "0"
      ],
      [
        "u",
        "t"
      ],
      [
        "a",
        "in"
      ],
      [
        "o",
        "s"
      ],
      [
        "es",
        "t"
      ],
      [
        "w",
        "ith"
      ],
      [
        "t",
        "r"
      ],
      [
        "H",
        "e"
      ],
      [
        "a",
        "b"
      ],
      [
        "C",
        "h"
      ],
      [
        "il",
        "l"
      ],
      [
        "p",
        "e"
      ],
      [
        "a",
        "k"
      ],
      [
        "c",
        "on"
      ],
      [
        "S",
        "t"
      ],
      [
        "it",
        "y"
      ],
      [
        "c",
        "e"
      ],
      [
        "h",
        "is"
      ],
      [
        "20",
        "1"
      ],
      [
        "w",
        "e"
      ],
      [
        "n",
        "e"
      ],
      [
        "w",
        "h"
      ],
      [
        "enc",
        "es"
      ],
      [
        "o",
        "d"
      ],
      [
        "i",
        "es"
      ],
      [
        "an",
        "t"
      ],
      [
        "th",
        "at"
      ],
      [
        "Re",
        "fer"
      ],
      [
        ")",
        ","
      ],
      [
        "at",
        "e"
      ],
      [
        "Refer",
        "ences"
      ],
      [
        "o",
        "c"
      ],
      [
        "i",
        "e"
      ],
      [
        "c",
        "t"
      ],
      [
        "s",
        "h"
      ],
      [
        "am",
        "e"
      ],
      [
        "al",
        "s"
      ],
      [
        "t",
        "e"
      ],
      [
        "g",
        "r"
      ],
      [
        "m",
        "an"
      ],
      [
        "ar",
        "d"
      ],
      [
        "in",
        "e"
      ],
      [
        "b",
        "or"
      ],
      [
        "i",
        "f"
      ],
      [
        "u",
        "p"
      ],
      [
        "ou",
        "r"
      ],
      [
        "l",
        "d"
      ],
      [
        "m",
        "er"
      ],
      [
        "on",
        "g"
      ],
      [
        "ac",
        "k"
      ],
      [
        "ar",
        "y"
      ],
      [
        "i",
        "p"
      ],
      [
        "m",
        "ent"
      ],
      [
        "oun",
        "d"
      ],
      [
        "p",
        "r"
      ],
      [
        "p",
        "ro"
      ],
      [
        "U",
        "n"
      ],
      [
        "e",
        "ar"
      ],
      [
        "19",
        "9"
      ],
      [
        "is",
        "h"
      ],
      [
        "v",
        "er"
      ],
      [
        "or",
        "t"
      ],
      [
        "a",
        "u"
      ],
      [
        "ac",
        "t"
      ],
      [
        "ic",
        "h"
      ],
      [
        "at",
        "ed"
      ],
      [
        "es",
        "s"
      ],
      [
        "1",
        "8"
      ],
      [
        "e",
        "x"
      ],
      [
        "pl",
        "ay"
      ],
      [
        "h",
        "t"
      ],
      [
        "u",
        "st"
      ],
      [
        "c",
        "l"
      ],
      [
        "A",
        "r"
      ],
      [
        "b",
        "s"
      ],
      [
        "o",
        "st"
      ],
      [
        "bor",
        "n"
      ],
      [
        "am",
        "p"
      ],
      [
        "en",
        "d"
      ],
      [
        "on",
        "e"
      ],
      [
        "el",
        "l"
      ],
      [
        "k",
        "e"
      ],
      [
        "ac",
        "h"
      ],
      [
        "er",
        "e"
      ],
      [
        "d",
        "i"
      ],
      [
        "ic",
        "an"
      ],
      [
        "ow",
        "n"
      ],
      [
        "op",
        "le"
      ],
      [
        "g",
        "e"
      ],
      [
        "as",
        "t"
      ],
      [
        "em",
        "ber"
      ],
      [
        "iv",
        "e"
      ],
      [
        "r",
        "an"
      ],
      [
        "w",
        "or"
      ],
      [
        "w",
        "ere"
      ],
      [
        "he",
        "r"
      ],
      [
        "ov",
        "er"
      ],
      [
        "u",
        "b"
      ],
      [
        "a",
        "f"
      ],
      [
        "p",
        "art"
      ],
      [
        "l",
        "and"
      ],
      [
        "ou",
        "t"
      ],
      [
        "t",
        "y"
      ],
      [
        "als",
        "o"
      ],
      [
        "d",
        "er"
      ],
      [
        "h",
        "as"
      ],
      [
        "a",
        "w"
      ],
      [
        "id",
        "e"
      ],
      [
        "i",
        "al"
      ],
      [
        "s",
        "p"
      ],
      [
        "bs",
        "it"
      ],
      [
        "ag",
        "e"
      ],
      [
        "we",
        "bsit"
      ],
      [
        "u",
        "e"
      ],
      [
        "r",
        "it"
      ],
      [
        "av",
        "e"
      ],
      [
        "o",
        "k"
      ],
      [
        "19",
        "8"
      ],
      [
        "A",
        "l"
      ],
      [
        "pe",
        "ople"
      ],
      [
        "as",
        "s"
      ],
      [
        "ir",
        "st"
      ],
      [
        "u",
        "d"
      ],
      [
        "ig",
        "ht"
      ],
      [
        ")",
        "."
      ],
      [
        "om",
        "e"
      ],
      [
        "0",
        "0"
      ],
      [
        "ic",
        "al"
      ],
      [
        "p",
        "h"
      ],
      [
        "r",
        "a"
      ],
      [
        "ec",
        "t"
      ],
      [
        "A",
        "n"
      ],
      [
        "or",
        "e"
      ],
      [
        "r",
        "i"
      ],
      [
        "p",
        "er"
      ],
      [
        "q",
        "u"
      ],
      [
        "A",
        "mer"
      ],
      [
        "en",
        "s"
      ],
      [
        "ter",
        "n"
      ],
      [
        "com",
        "p"
      ],
      [
        "e",
        "v"
      ],
      [
        "o",
        "g"
      ],
      [
        "f",
        "irst"
      ],
      [
        "l",
        "i"
      ],
      [
        "at",
        "es"
      ],
      [
        "e",
        "w"
      ],
      [
        "m",
        "e"
      ],
      [
        "O",
        "ther"
      ],
      [
        "k",
        "n"
      ],
      [
        "ad",
        "e"
      ],
      [
        "an",
        "s"
      ],
      [
        "iv",
        "ed"
      ],
      [
        "M",
        "ar"
      ],
      [
        "im",
        "e"
      ],
      [
        "it",
        "ed"
      ],
      [
        "ation",
        "al"
      ],
      [
        "an",
        "g"
      ],
      [
        "ic",
        "t"
      ],
      [
        "d",
        "r"
      ],
      [
        "ion",
        "s"
      ],
      [
        "19",
        "7"
      ],
      [
        "o",
        "ther"
      ],
      [
        "n",
        "ot"
      ],
      [
        "20",
        "2"
      ],
      [
        "all",
        "y"
      ],
      [
        "be",
        "c"
      ],
      [
        "m",
        "ov"
      ],
      [
        "wh",
        "ich"
      ],
      [
        "h",
        "ad"
      ],
      [
        "u",
        "g"
      ],
      [
        "b",
        "r"
      ],
      [
        "c",
        "he"
      ],
      [
        "websit",
        "es"
      ],
      [
        "u",
        "re"
      ],
      [
        "ou",
        "s"
      ],
      [
        "L",
        "e"
      ],
      [
        "or",
        "y"
      ],
      [
        "p",
        "ort"
      ],
      [
        "Amer",
        "ican"
      ],
      [
        "at",
        "er"
      ],
      [
        "ic",
        "e"
      ],
      [
        "b",
        "ut"
      ],
      [
        "ic",
        "s"
      ],
      [
        "h",
        "ave"
      ],
      [
        "u",
        "c"
      ],
      [
        "c",
        "an"
      ],
      [
        "ac",
        "e"
      ],
      [
        "i",
        "z"
      ],
      [
        "w",
        "he"
      ],
      [
        "for",
        "m"
      ],
      [
        "p",
        "t"
      ],
      [
        "c",
        "o"
      ],
      [
        "19",
        "4"
      ],
      [
        "ou",
        "g"
      ],
      [
        "b",
        "o"
      ],
      [
        "p",
        "res"
      ],
      [
        "W",
        "or"
      ],
      [
        "w",
        "o"
      ],
      [
        "u",
        "ary"
      ],
      [
        "in",
        "d"
      ],
      [
        "kn",
        "own"
      ],
      [
        "N",
        "or"
      ],
      [
        "S",
        "e"
      ],
      [
        "us",
        "ed"
      ],
      [
        "y",
        "ear"
      ],
      [
        "at",
        "h"
      ],
      [
        "S",
        "he"
      ],
      [
        "k",
        "s"
      ],
      [
        "the",
        "y"
      ],
      [
        "19",
        "3"
      ],
      [
        "Un",
        "ited"
      ],
      [
        "T",
        "his"
      ],
      [
        "ul",
        "t"
      ],
      [
        "o",
        "b"
      ],
      [
        "b",
        "all"
      ],
      [
        "m",
        "on"
      ],
      [
        "enc",
        "e"
      ],
      [
        "oun",
        "ty"
      ],
      [
        "d",
        "is"
      ],
      [
        "i",
        "re"
      ],
      [
        "the",
        "ir"
      ],
      [
        "g",
        "o"
      ],
      [
        "C",
        "om"
      ],
      [
        "S",
        "h"
      ],
      [
        "c",
        "ent"
      ],
      [
        "b",
        "ack"
      ],
      [
        "19",
        "5"
      ],
      [
        "ol",
        "d"
      ],
      [
        "ak",
        "e"
      ],
      [
        "wh",
        "o"
      ],
      [
        "s",
        "on"
      ],
      [
        "E",
        "n"
      ],
      [
        "it",
        "s"
      ],
      [
        "re",
        "e"
      ],
      [
        "1",
        "0"
      ],
      [
        "19",
        "6"
      ],
      [
        "F",
        "ran"
      ],
      [
        "m",
        "un"
      ],
      [
        "r",
        "y"
      ],
      [
        "s",
        "er"
      ],
      [
        "at",
        "t"
      ],
      [
        "J",
        "an"
      ],
      [
        "i",
        "o"
      ],
      [
        "n",
        "or"
      ],
      [
        "The",
        "y"
      ],
      [
        "h",
        "y"
      ],
      [
        "c",
        "or"
      ],
      [
        "in",
        "t"
      ],
      [
        "is",
        "s"
      ],
      [
        "man",
        "y"
      ],
      [
        "of",
        "f"
      ],
      [
        "m",
        "ost"
      ],
      [
        "id",
        "ent"
      ],
      [
        "Ar",
        "ch"
      ],
      [
        "P",
        "ar"
      ],
      [
        "c",
        "re"
      ],
      [
        "e",
        "le"
      ],
      [
        "f",
        "l"
      ],
      [
        "a",
        "ir"
      ],
      [
        "c",
        "all"
      ],
      [
        "Wor",
        "ld"
      ],
      [
        "m",
        "ade"
      ],
      [
        "St",
        "ates"
      ],
      [
        "as",
        "e"
      ],
      [
        "t",
        "ime"
      ],
      [
        "t",
        "on"
      ],
      [
        "an",
        "n"
      ],
      [
        "it",
        "e"
      ],
      [
        "th",
        "is"
      ],
      [
        "af",
        "ter"
      ],
      [
        "c",
        "ity"
      ],
      [
        "w",
        "ard"
      ],
      [
        "v",
        "is"
      ],
      [
        "J",
        "o"
      ],
      [
        "in",
        "a"
      ],
      [
        "as",
        "h"
      ],
      [
        "N",
        "ew"
      ],
      [
        "ou",
        "p"
      ],
      [
        "a",
        "h"
      ],
      [
        "m",
        "p"
      ],
      [
        "st",
        "r"
      ],
      [
        "t",
        "en"
      ],
      [
        "ist",
        "r"
      ],
      [
        "1",
        "5"
      ],
      [
        "an",
        "y"
      ],
      [
        "it",
        "al"
      ],
      [
        "A",
        "f"
      ],
      [
        "f",
        "ound"
      ],
      [
        "A",
        "s"
      ],
      [
        "o",
        "ot"
      ],
      [
        "am",
        "es"
      ],
      [
        "ig",
        "n"
      ],
      [
        "t",
        "wo"
      ],
      [
        "ou",
        "th"
      ],
      [
        "ust",
        "r"
      ],
      [
        "di",
        "ed"
      ],
      [
        "p",
        "ol"
      ],
      [
        "1",
        "2"
      ],
      [
        "le",
        "y"
      ],
      [
        "C",
        "an"
      ],
      [
        "as",
        "on"
      ],
      [
        "re",
        "g"
      ],
      [
        "call",
        "ed"
      ],
      [
        "C",
        "ounty"
      ],
      [
        "T",
        "h"
      ],
      [
        "in",
        "cl"
      ],
      [
        "ur",
        "ing"
      ],
      [
        "wor",
        "k"
      ],
      [
        "s",
        "ong"
      ],
      [
        "ou",
        "ld"
      ],
      [
        "l",
        "in"
      ],
      [
        "l",
        "es"
      ],
      [
        "m",
        "ar"
      ],
      [
        "oug",
        "h"
      ],
      [
        "O",
        "n"
      ],
      [
        "T",
        "V"
      ],
      [
        "the",
        "re"
      ],
      [
        "bec",
        "ame"
      ],
      [
        "1",
        "7"
      ],
      [
        "w",
        "ay"
      ],
      [
        "iv",
        "er"
      ],
      [
        "be",
        "en"
      ],
      [
        "res",
        "s"
      ],
      [
        "W",
        "ay"
      ],
      [
        "c",
        "i"
      ],
      [
        "l",
        "o"
      ],
      [
        "ation",
        "s"
      ],
      [
        "m",
        "ed"
      ],
      [
        "he",
        "l"
      ],
      [
        "i",
        "k"
      ],
      [
        "be",
        "t"
      ],
      [
        "p",
        "o"
      ],
      [
        "ter",
        "s"
      ],
      [
        "d",
        "ay"
      ],
      [
        "f",
        "f"
      ],
      [
        "in",
        "ce"
      ],
      [
        "re",
        "t"
      ],
      [
        "1",
        "6"
      ],
      [
        "I",
        "I"
      ],
      [
        "M",
        "ach"
      ],
      [
        "as",
        "ed"
      ],
      [
        "ag",
        "ue"
      ],
      [
        "ver",
        "y"
      ],
      [
        "amp",
        "ion"
      ],
      [
        "C",
        "on"
      ],
      [
        "m",
        "us"
      ],
      [
        "p",
        "op"
      ],
      [
        "iv",
        "ers"
      ],
      [
        "ab",
        "out"
      ],
      [
        "Arch",
        "ived"
      ],
      [
        "l",
        "ar"
      ],
      [
        "ur",
        "r"
      ],
      [
        "c",
        "ol"
      ],
      [
        "s",
        "ome"
      ],
      [
        "it",
        "ion"
      ],
      [
        "19",
        "2"
      ],
      [
        "D",
        "e"
      ],
      [
        "G",
        "er"
      ],
      [
        "i",
        "b"
      ],
      [
        "i",
        "le"
      ],
      [
        "s",
        "ing"
      ],
      [
        "Mach",
        "ine"
      ],
      [
        "G",
        "re"
      ],
      [
        "w",
        "rit"
      ],
      [
        "ct",
        "ion"
      ],
      [
        "ub",
        "l"
      ],
      [
        "i",
        "um"
      ],
      [
        "ic",
        "k"
      ],
      [
        "Way",
        "back"
      ],
      [
        "F",
        "or"
      ],
      [
        "m",
        "ore"
      ],
      [
        "n",
        "ame"
      ],
      [
        "t",
        "t"
      ],
      [
        "u",
        "ch"
      ],
      [
        "the",
        "m"
      ],
      [
        "ag",
        "es"
      ],
      [
        "sh",
        "ip"
      ],
      [
        "En",
        "g"
      ],
      [
        "E",
        "d"
      ],
      [
        "ar",
        "s"
      ],
      [
        "Jan",
        "uary"
      ],
      [
        "\"",
        ","
      ],
      [
        "A",
        "ustr"
      ],
      [
        "con",
        "t"
      ],
      [
        "ne",
        "w"
      ],
      [
        "M",
        "on"
      ],
      [
        "m",
        "a"
      ],
      [
        "ing",
        "s"
      ],
      [
        "ke",
        "y"
      ],
      [
        "I",
        "s"
      ],
      [
        "in",
        "to"
      ],
      [
        "year",
        "s"
      ],
      [
        "P",
        "ro"
      ],
      [
        "c",
        "er"
      ],
      [
        "c",
        "ap"
      ],
      [
        "u",
        "il"
      ],
      [
        "au",
        "se"
      ],
      [
        "istr",
        "ict"
      ],
      [
        "d",
        "es"
      ],
      [
        "ent",
        "s"
      ],
      [
        "gr",
        "ap"
      ],
      [
        "f",
        "e"
      ],
      [
        "g",
        "an"
      ],
      [
        "n",
        "am"
      ],
      [
        "s",
        "k"
      ],
      [
        "he",
        "d"
      ],
      [
        "in",
        "n"
      ],
      [
        "com",
        "mun"
      ],
      [
        "gr",
        "oup"
      ],
      [
        "G",
        "u"
      ],
      [
        "S",
        "p"
      ],
      [
        "u",
        "se"
      ],
      [
        "st",
        "ate"
      ],
      [
        "se",
        "ason"
      ],
      [
        "ab",
        "le"
      ],
      [
        "ant",
        "s"
      ],
      [
        "i",
        "x"
      ],
      [
        "s",
        "y"
      ],
      [
        "on",
        "ly"
      ],
      [
        "al",
        "ian"
      ],
      [
        "st",
        "art"
      ],
      [
        "20",
        "20"
      ],
      [
        "te",
        "am"
      ],
      [
        "d",
        "u"
      ],
      [
        "ic",
        "a"
      ],
      [
        "oot",
        "ball"
      ],
      [
        "G",
        "r"
      ],
      [
        "O",
        "c"
      ],
      [
        "P",
        "r"
      ],
      [
        "v",
        "e"
      ],
      [
        "or",
        "s"
      ],
      [
        "m",
        "in"
      ],
      [
        "p",
        "ubl"
      ],
      [
        "an",
        "c"
      ],
      [
        "play",
        "ed"
      ],
      [
        "part",
        "ment"
      ],
      [
        "ur",
        "n"
      ],
      [
        "oun",
        "t"
      ],
      [
        "if",
        "e"
      ],
      [
        "1",
        "1"
      ],
      [
        "T",
        "r"
      ],
      [
        "ain",
        "t"
      ],
      [
        "a",
        "z"
      ],
      [
        "on",
        "d"
      ],
      [
        "es",
        "e"
      ],
      [
        "ion",
        "al"
      ],
      [
        "whe",
        "n"
      ],
      [
        "B",
        "e"
      ],
      [
        "C",
        "ar"
      ],
      [
        "C",
        "up"
      ],
      [
        "u",
        "ro"
      ],
      [
        "ul",
        "ar"
      ],
      [
        "s",
        "o"
      ],
      [
        "l",
        "ow"
      ],
      [
        "con",
        "d"
      ],
      [
        "f",
        "am"
      ],
      [
        "h",
        "n"
      ],
      [
        "m",
        "ain"
      ],
      [
        "n",
        "um"
      ],
      [
        "p",
        "ar"
      ],
      [
        "play",
        "er"
      ],
      [
        "ur",
        "y"
      ],
      [
        "un",
        "e"
      ],
      [
        "B",
        "rit"
      ],
      [
        "M",
        "ay"
      ],
      [
        "R",
        "o"
      ],
      [
        "en",
        "n"
      ],
      [
        "le",
        "t"
      ],
      [
        "1",
        "4"
      ],
      [
        "P",
        "l"
      ],
      [
        "s",
        "he"
      ],
      [
        "vis",
        "ion"
      ],
      [
        "mus",
        "ic"
      ],
      [
        "A",
        "ug"
      ],
      [
        "E",
        "uro"
      ],
      [
        "re",
        "l"
      ],
      [
        "un",
        "t"
      ],
      [
        "B",
        "l"
      ],
      [
        "G",
        "e"
      ],
      [
        "b",
        "uil"
      ],
      [
        "l",
        "ed"
      ],
      [
        "m",
        "y"
      ],
      [
        "im",
        "es"
      ],
      [
        "Can",
        "ad"
      ],
      [
        "Aug",
        "ust"
      ],
      [
        "F",
        "e"
      ],
      [
        "m",
        "et"
      ],
      [
        "li",
        "ke"
      ],
      [
        "incl",
        "ud"
      ],
      [
        "J",
        "ul"
      ],
      [
        "om",
        "an"
      ],
      [
        "ig",
        "h"
      ],
      [
        "res",
        "t"
      ],
      [
        "Ch",
        "ampion"
      ],
      [
        "sh",
        "ow"
      ],
      [
        "1",
        "3"
      ],
      [
        "D",
        "ec"
      ],
      [
        "i",
        "el"
      ],
      [
        "ol",
        "og"
      ],
      [
        "P",
        "e"
      ],
      [
        "P",
        "res"
      ],
      [
        "n",
        "o"
      ],
      [
        "el",
        "y"
      ],
      [
        "M",
        "an"
      ],
      [
        "v",
        "el"
      ],
      [
        "ch",
        "o"
      ],
      [
        "whe",
        "re"
      ],
      [
        "pt",
        "ember"
      ],
      [
        "Se",
        "ptember"
      ],
      [
        "In",
        "tern"
      ],
      [
        "mov",
        "ie"
      ],
      [
        "Fran",
        "ce"
      ],
      [
        "\"",
        "."
      ],
      [
        "C",
        "l"
      ],
      [
        "p",
        "os"
      ],
      [
        "al",
        "e"
      ],
      [
        "The",
        "re"
      ],
      [
        "B",
        "r"
      ],
      [
        "N",
        "ov"
      ],
      [
        "N",
        "ational"
      ],
      [
        "ro",
        "w"
      ],
      [
        "ist",
        "ory"
      ],
      [
        "we",
        "en"
      ],
      [
        "over",
        "n"
      ],
      [
        "a",
        "ul"
      ],
      [
        "it",
        "ies"
      ],
      [
        "ou",
        "se"
      ],
      [
        "for",
        "e"
      ],
      [
        "pol",
        "it"
      ],
      [
        "l",
        "ing"
      ],
      [
        "in",
        "s"
      ],
      [
        "a",
        "i"
      ],
      [
        "d",
        "uring"
      ],
      [
        "f",
        "ul"
      ],
      [
        "m",
        "il"
      ],
      [
        "an",
        "ce"
      ],
      [
        "is",
        "on"
      ],
      [
        "ic",
        "ial"
      ],
      [
        "ers",
        "on"
      ],
      [
        "Le",
        "ague"
      ],
      [
        "cor",
        "d"
      ],
      [
        "bet",
        "ween"
      ],
      [
        "c",
        "ar"
      ],
      [
        "c",
        "ess"
      ],
      [
        "f",
        "in"
      ],
      [
        "th",
        "an"
      ],
      [
        "200",
        "6"
      ],
      [
        "I",
        "S"
      ],
      [
        "I",
        "TV"
      ],
      [
        "c",
        "r"
      ],
      [
        "g",
        "er"
      ],
      [
        "g",
        "en"
      ],
      [
        "i",
        "er"
      ],
      [
        "ro",
        "s"
      ],
      [
        "Un",
        "ivers"
      ],
      [
        "Mar",
        "ch"
      ],
      [
        "e",
        "p"
      ],
      [
        "w",
        "on"
      ],
      [
        "ig",
        "in"
      ],
      [
        "200",
        "8"
      ],
      [
        "act",
        "or"
      ],
      [
        "sp",
        "ec"
      ],
      [
        "Dec",
        "ember"
      ],
      [
        "d",
        "o"
      ],
      [
        "re",
        "le"
      ],
      [
        "am",
        "a"
      ],
      [
        "th",
        "ree"
      ],
      [
        "il",
        "y"
      ],
      [
        "ag",
        "ain"
      ],
      [
        "200",
        "7"
      ],
      [
        "Jo",
        "hn"
      ],
      [
        "F",
        "r"
      ],
      [
        "d",
        "iv"
      ],
      [
        "f",
        "ootball"
      ],
      [
        "o",
        "od"
      ],
      [
        "al",
        "i"
      ],
      [
        "un",
        "der"
      ],
      [
        "are",
        "a"
      ],
      [
        "d",
        "if"
      ],
      [
        "to",
        "ber"
      ],
      [
        "O",
        "ly"
      ],
      [
        "P",
        "ol"
      ],
      [
        "P",
        "aul"
      ],
      [
        "l",
        "oc"
      ],
      [
        "u",
        "al"
      ],
      [
        "om",
        "in"
      ],
      [
        "il",
        "le"
      ],
      [
        "pro",
        "v"
      ],
      [
        "Al",
        "l"
      ],
      [
        "Oc",
        "tober"
      ],
      [
        "Brit",
        "ish"
      ],
      [
        "Nov",
        "ember"
      ],
      [
        "Oly",
        "mp"
      ],
      [
        "A",
        "pr"
      ],
      [
        "B",
        "o"
      ],
      [
        "J",
        "une"
      ],
      [
        "overn",
        "ment"
      ],
      [
        "A",
        "d"
      ],
      [
        "B",
        "ar"
      ],
      [
        "F",
        "l"
      ],
      [
        "S",
        "w"
      ],
      [
        "h",
        "im"
      ],
      [
        "the",
        "n"
      ],
      [
        "are",
        "er"
      ],
      [
        "ill",
        "ion"
      ],
      [
        "bec",
        "ause"
      ],
      [
        "Apr",
        "il"
      ],
      [
        "B",
        "N"
      ],
      [
        "S",
        "aint"
      ],
      [
        "l",
        "iv"
      ],
      [
        "ch",
        "il"
      ],
      [
        "di",
        "re"
      ],
      [
        "IS",
        "BN"
      ],
      [
        "C",
        "r"
      ],
      [
        "b",
        "um"
      ],
      [
        "l",
        "ish"
      ],
      [
        "s",
        "a"
      ],
      [
        "al",
        "ity"
      ],
      [
        "se",
        "cond"
      ],
      [
        "pr",
        "of"
      ],
      [
        "Af",
        "ter"
      ],
      [
        "d",
        "s"
      ],
      [
        "is",
        "hed"
      ],
      [
        "en",
        "g"
      ],
      [
        "for",
        "mer"
      ],
      [
        "It",
        "alian"
      ],
      [
        "de",
        "partment"
      ],
      [
        "ser",
        "v"
      ],
      [
        "0",
        "s"
      ],
      [
        "O",
        "ff"
      ],
      [
        "m",
        "ay"
      ],
      [
        "in",
        "ter"
      ],
      [
        "num",
        "ber"
      ],
      [
        "3",
        "0"
      ],
      [
        "C",
        "ity"
      ],
      [
        "R",
        "el"
      ],
      [
        "b",
        "and"
      ],
      [
        "i",
        "et"
      ],
      [
        "j",
        "or"
      ],
      [
        "te",
        "le"
      ],
      [
        "Nor",
        "th"
      ],
      [
        "nam",
        "ed"
      ],
      [
        "a",
        "e"
      ],
      [
        "i",
        "ous"
      ],
      [
        "m",
        "en"
      ],
      [
        "v",
        "ol"
      ],
      [
        "w",
        "ould"
      ],
      [
        "is",
        "m"
      ],
      [
        "us",
        "s"
      ],
      [
        "ist",
        "s"
      ],
      [
        "201",
        "0"
      ],
      [
        "websit",
        "e"
      ],
      [
        "Champion",
        "ship"
      ],
      [
        "E",
        "l"
      ],
      [
        "M",
        "e"
      ],
      [
        "O",
        "r"
      ],
      [
        "i",
        "am"
      ],
      [
        "l",
        "ater"
      ],
      [
        "o",
        "on"
      ],
      [
        "z",
        "e"
      ],
      [
        "al",
        "bum"
      ],
      [
        "unt",
        "il"
      ],
      [
        "dif",
        "fer"
      ],
      [
        "A",
        "t"
      ],
      [
        "B",
        "ra"
      ],
      [
        "J",
        "ap"
      ],
      [
        "W",
        "h"
      ],
      [
        "W",
        "ill"
      ],
      [
        "o",
        "se"
      ],
      [
        "le",
        "ad"
      ],
      [
        "ther",
        "n"
      ],
      [
        "ber",
        "t"
      ],
      [
        "201",
        "2"
      ],
      [
        "if",
        "ic"
      ],
      [
        "00",
        "0"
      ],
      [
        "ser",
        "ies"
      ],
      [
        "hel",
        "p"
      ],
      [
        "Eng",
        "lish"
      ],
      [
        "Ge",
        "or"
      ],
      [
        "Univers",
        "ity"
      ],
      [
        "Jap",
        "an"
      ],
      [
        "C",
        "ent"
      ],
      [
        "b",
        "le"
      ],
      [
        "g",
        "re"
      ],
      [
        "l",
        "ong"
      ],
      [
        "w",
        "ill"
      ],
      [
        "er",
        "al"
      ],
      [
        "br",
        "uary"
      ],
      [
        "Fe",
        "bruary"
      ],
      [
        "a",
        "il"
      ],
      [
        "c",
        "ed"
      ],
      [
        "ow",
        "er"
      ],
      [
        "200",
        "5"
      ],
      [
        "che",
        "s"
      ],
      [
        "Euro",
        "pe"
      ],
      [
        "Jul",
        "y"
      ],
      [
        "2",
        "3"
      ],
      [
        "m",
        "at"
      ],
      [
        "wor",
        "ld"
      ],
      [
        "L",
        "u"
      ],
      [
        "R",
        "iver"
      ],
      [
        "c",
        "oun"
      ],
      [
        "e",
        "ver"
      ],
      [
        "o",
        "is"
      ],
      [
        "s",
        "uch"
      ],
      [
        "z",
        "il"
      ],
      [
        "ch",
        "ar"
      ],
      [
        "pres",
        "ent"
      ],
      [
        "Pres",
        "ident"
      ],
      [
        "dire",
        "ct"
      ],
      [
        "d",
        "istrict"
      ],
      [
        "l",
        "ine"
      ],
      [
        "u",
        "ally"
      ],
      [
        "w",
        "ater"
      ],
      [
        "ar",
        "r"
      ],
      [
        "th",
        "r"
      ],
      [
        "ne",
        "ar"
      ],
      [
        "grap",
        "hy"
      ],
      [
        "tele",
        "vision"
      ],
      [
        "2",
        "2"
      ],
      [
        "A",
        "ward"
      ],
      [
        "M",
        "a"
      ],
      [
        "S",
        "outh"
      ],
      [
        "f",
        "our"
      ],
      [
        "g",
        "y"
      ],
      [
        "ed",
        "ia"
      ],
      [
        "ro",
        "p"
      ],
      [
        "200",
        "9"
      ],
      [
        "201",
        "3"
      ],
      [
        "differ",
        "ent"
      ],
      [
        "O",
        "tt"
      ],
      [
        "c",
        "es"
      ],
      [
        "ar",
        "a"
      ],
      [
        "ut",
        "ion"
      ],
      [
        "oc",
        "k"
      ],
      [
        "ell",
        "a"
      ],
      [
        "nor",
        "th"
      ],
      [
        "N",
        "o"
      ],
      [
        "a",
        "ther"
      ],
      [
        "b",
        "ur"
      ],
      [
        "d",
        "ec"
      ],
      [
        "v",
        "ide"
      ],
      [
        "it",
        "t"
      ],
      [
        "ro",
        "ad"
      ],
      [
        "pl",
        "ace"
      ],
      [
        "com",
        "e"
      ],
      [
        "prof",
        "ess"
      ],
      [
        "l",
        "a"
      ],
      [
        "l",
        "aw"
      ],
      [
        "s",
        "w"
      ],
      [
        "x",
        "t"
      ],
      [
        "un",
        "g"
      ],
      [
        "ov",
        "e"
      ],
      [
        "os",
        "s"
      ],
      [
        "18",
        "9"
      ],
      [
        "Bra",
        "zil"
      ],
      [
        "C",
        "or"
      ],
      [
        "p",
        "re"
      ],
      [
        "s",
        "ol"
      ],
      [
        "an",
        "k"
      ],
      [
        "In",
        "d"
      ],
      [
        "de",
        "ath"
      ],
      [
        "201",
        "7"
      ],
      [
        "P",
        "h"
      ],
      [
        "S",
        "c"
      ],
      [
        "g",
        "u"
      ],
      [
        "g",
        "est"
      ],
      [
        "j",
        "o"
      ],
      [
        "l",
        "ive"
      ],
      [
        "l",
        "ived"
      ],
      [
        "m",
        "ake"
      ],
      [
        "s",
        "m"
      ],
      [
        "v",
        "en"
      ],
      [
        "he",
        "n"
      ],
      [
        "an",
        "a"
      ],
      [
        "em",
        "ent"
      ],
      [
        "tr",
        "y"
      ],
      [
        "ak",
        "ing"
      ],
      [
        "con",
        "s"
      ],
      [
        "sing",
        "er"
      ],
      [
        "F",
        "in"
      ],
      [
        "m",
        "ember"
      ],
      [
        "p",
        "or"
      ],
      [
        "v",
        "ille"
      ],
      [
        "is",
        "e"
      ],
      [
        "ur",
        "es"
      ],
      [
        "oc",
        "key"
      ],
      [
        "202",
        "1"
      ],
      [
        "po",
        "int"
      ],
      [
        "2",
        "5"
      ],
      [
        "g",
        "overnment"
      ],
      [
        "l",
        "er"
      ],
      [
        "l",
        "ife"
      ],
      [
        "m",
        "s"
      ],
      [
        "s",
        "ame"
      ],
      [
        "ã",
        "o"
      ],
      [
        "he",
        "ad"
      ],
      [
        "at",
        "or"
      ],
      [
        "ic",
        "ip"
      ],
      [
        "to",
        "p"
      ],
      [
        "to",
        "w"
      ],
      [
        "ro",
        "g"
      ],
      [
        "ie",
        "w"
      ],
      [
        "form",
        "ation"
      ],
      [
        "bo",
        "ok"
      ],
      [
        "Ger",
        "man"
      ],
      [
        "Rel",
        "ated"
      ],
      [
        "2",
        "4"
      ],
      [
        "I",
        "l"
      ],
      [
        "U",
        "S"
      ],
      [
        "er",
        "n"
      ],
      [
        "the",
        "se"
      ],
      [
        "ar",
        "ound"
      ],
      [
        "pl",
        "ac"
      ],
      [
        "Ch",
        "r"
      ],
      [
        "201",
        "1"
      ],
      [
        "cap",
        "ital"
      ],
      [
        "commun",
        "e"
      ],
      [
        "cho",
        "ol"
      ],
      [
        "ros",
        "s"
      ],
      [
        "i",
        "ed"
      ],
      [
        "p",
        "ages"
      ],
      [
        "w",
        "ell"
      ],
      [
        "is",
        "ter"
      ],
      [
        "re",
        "cord"
      ],
      [
        "ag",
        "ed"
      ],
      [
        "per",
        "i"
      ],
      [
        "C",
        "ol"
      ],
      [
        "R",
        "uss"
      ],
      [
        "W",
        "e"
      ],
      [
        "W",
        "ar"
      ],
      [
        "b",
        "el"
      ],
      [
        "c",
        "k"
      ],
      [
        "o",
        "x"
      ],
      [
        "t",
        "ain"
      ],
      [
        "le",
        "ct"
      ],
      [
        "ak",
        "es"
      ],
      [
        "ver",
        "al"
      ],
      [
        "act",
        "ress"
      ],
      [
        "cent",
        "ury"
      ],
      [
        "rele",
        "ased"
      ],
      [
        "H",
        "ow"
      ],
      [
        "K",
        "ing"
      ],
      [
        "L",
        "ou"
      ],
      [
        "Y",
        "or"
      ],
      [
        "b",
        "est"
      ],
      [
        "f",
        "rog"
      ],
      [
        "s",
        "ide"
      ],
      [
        "le",
        "g"
      ],
      [
        "op",
        "er"
      ],
      [
        "ist",
        "or"
      ],
      [
        "Mon",
        "t"
      ],
      [
        "start",
        "ed"
      ],
      [
        "c",
        "a"
      ],
      [
        "h",
        "um"
      ],
      [
        "m",
        "illion"
      ],
      [
        "r",
        "ed"
      ],
      [
        "en",
        "ch"
      ],
      [
        "at",
        "ive"
      ],
      [
        "as",
        "tern"
      ],
      [
        "cre",
        "ated"
      ],
      [
        "C",
        "o"
      ],
      [
        "H",
        "is"
      ],
      [
        "H",
        "ar"
      ],
      [
        "d",
        "uc"
      ],
      [
        "n",
        "ia"
      ],
      [
        "s",
        "ur"
      ],
      [
        "oug",
        "ht"
      ],
      [
        "att",
        "ack"
      ],
      [
        "Intern",
        "ational"
      ],
      [
        "sa",
        "id"
      ],
      [
        "Yor",
        "k"
      ],
      [
        "b",
        "us"
      ],
      [
        "d",
        "ing"
      ],
      [
        "g",
        "h"
      ],
      [
        "r",
        "al"
      ],
      [
        "r",
        "un"
      ],
      [
        "u",
        "de"
      ],
      [
        "on",
        "om"
      ],
      [
        "at",
        "ing"
      ],
      [
        "re",
        "ad"
      ],
      [
        "ig",
        "ital"
      ],
      [
        "pr",
        "ison"
      ],
      [
        "ear",
        "ly"
      ],
      [
        "ang",
        "u"
      ],
      [
        "Will",
        "iam"
      ],
      [
        "tow",
        "n"
      ],
      [
        "B",
        "C"
      ],
      [
        "M",
        "y"
      ],
      [
        "f",
        "t"
      ],
      [
        "g",
        "et"
      ],
      [
        "n",
        "er"
      ],
      [
        "p",
        "erson"
      ],
      [
        "w",
        "est"
      ],
      [
        "st",
        "at"
      ],
      [
        "be",
        "ing"
      ],
      [
        "im",
        "port"
      ],
      [
        "200",
        "4"
      ],
      [
        "201",
        "6"
      ],
      [
        "gr",
        "ound"
      ],
      [
        "Fr",
        "ench"
      ],
      [
        "5",
        "0"
      ],
      [
        "H",
        "istory"
      ],
      [
        "b",
        "ers"
      ],
      [
        "c",
        "areer"
      ],
      [
        "h",
        "o"
      ],
      [
        "l",
        "ist"
      ],
      [
        "p",
        "end"
      ],
      [
        "s",
        "outh"
      ],
      [
        "v",
        "iew"
      ],
      [
        "y",
        "s"
      ],
      [
        "z",
        "ina"
      ],
      [
        "al",
        "ia"
      ],
      [
        "20",
        "19"
      ],
      [
        "The",
        "se"
      ],
      [
        "ro",
        "l"
      ],
      [
        "iv",
        "es"
      ],
      [
        "be",
        "gan"
      ],
      [
        "ul",
        "ation"
      ],
      [
        "de",
        "vel"
      ],
      [
        "tr",
        "ans"
      ],
      [
        "pres",
        "s"
      ],
      [
        "olog",
        "y"
      ],
      [
        "Off",
        "icial"
      ],
      [
        "P",
        "art"
      ],
      [
        "S",
        "up"
      ],
      [
        "T",
        "e"
      ],
      [
        "T",
        "ur"
      ],
      [
        "V",
        "é"
      ],
      [
        "a",
        "ut"
      ],
      [
        "j",
        "ect"
      ],
      [
        "t",
        "s"
      ],
      [
        "y",
        "r"
      ],
      [
        "19",
        "0"
      ],
      [
        "be",
        "fore"
      ],
      [
        "ap",
        "pe"
      ],
      [
        "od",
        "y"
      ],
      [
        "devel",
        "op"
      ],
      [
        "2",
        "9"
      ],
      [
        "A",
        "b"
      ],
      [
        "N",
        "e"
      ],
      [
        "b",
        "l"
      ],
      [
        "b",
        "ased"
      ],
      [
        "g",
        "ame"
      ],
      [
        "w",
        "ar"
      ],
      [
        "in",
        "k"
      ],
      [
        "al",
        "d"
      ],
      [
        "Par",
        "k"
      ],
      [
        "ci",
        "ent"
      ],
      [
        "writ",
        "er"
      ],
      [
        "ma",
        "jor"
      ],
      [
        "publ",
        "ic"
      ],
      [
        "vide",
        "o"
      ],
      [
        "Lou",
        "is"
      ],
      [
        "Vé",
        "zina"
      ],
      [
        "O",
        "s"
      ],
      [
        "S",
        "ec"
      ],
      [
        "h",
        "ome"
      ],
      [
        "m",
        "and"
      ],
      [
        "n",
        "ational"
      ],
      [
        "s",
        "ince"
      ],
      [
        "or",
        "igin"
      ],
      [
        "el",
        "f"
      ],
      [
        "201",
        "5"
      ],
      [
        "gr",
        "am"
      ],
      [
        "sp",
        "ort"
      ],
      [
        "ri",
        "ed"
      ],
      [
        "ens",
        "us"
      ],
      [
        "dr",
        "en"
      ],
      [
        "202",
        "3"
      ],
      [
        "mov",
        "ed"
      ],
      [
        "bo",
        "th"
      ],
      [
        "ult",
        "an"
      ],
      [
        "ele",
        "ct"
      ],
      [
        "Gre",
        "en"
      ],
      [
        "thr",
        "ough"
      ],
      [
        "import",
        "ant"
      ],
      [
        "A",
        "c"
      ],
      [
        "M",
        "in"
      ],
      [
        "S",
        "ome"
      ],
      [
        "b",
        "ig"
      ],
      [
        "w",
        "ent"
      ],
      [
        "ic",
        "ian"
      ],
      [
        "st",
        "er"
      ],
      [
        "se",
        "veral"
      ],
      [
        "land",
        "s"
      ],
      [
        "202",
        "2"
      ],
      [
        "Af",
        "r"
      ],
      [
        "lin",
        "ois"
      ],
      [
        "includ",
        "ing"
      ],
      [
        "again",
        "st"
      ],
      [
        "Olymp",
        "ics"
      ],
      [
        "Il",
        "linois"
      ],
      [
        "2",
        "1"
      ],
      [
        "B",
        "re"
      ],
      [
        "C",
        "ali"
      ],
      [
        "D",
        "an"
      ],
      [
        "k",
        "m"
      ],
      [
        "s",
        "up"
      ],
      [
        "t",
        "a"
      ],
      [
        "v",
        "ent"
      ],
      [
        "on",
        "y"
      ],
      [
        "or",
        "der"
      ],
      [
        "for",
        "nia"
      ],
      [
        "200",
        "2"
      ],
      [
        "form",
        "ed"
      ],
      [
        "pres",
        "ident"
      ],
      [
        "reg",
        "ion"
      ],
      [
        "Cali",
        "fornia"
      ],
      [
        "7",
        "8"
      ],
      [
        "M",
        "D"
      ],
      [
        "d",
        "on"
      ],
      [
        "k",
        "ill"
      ],
      [
        "s",
        "oc"
      ],
      [
        "in",
        "ess"
      ],
      [
        "en",
        "ed"
      ],
      [
        "st",
        "it"
      ],
      [
        "us",
        "h"
      ],
      [
        "ot",
        "t"
      ],
      [
        "pl",
        "ant"
      ],
      [
        "201",
        "8"
      ],
      [
        "fam",
        "ily"
      ],
      [
        "Pe",
        "ople"
      ],
      [
        "sm",
        "all"
      ],
      [
        "G",
        "o"
      ],
      [
        "c",
        "le"
      ],
      [
        "f",
        "il"
      ],
      [
        "n",
        "ow"
      ],
      [
        "r",
        "ight"
      ],
      [
        "es",
        "tern"
      ],
      [
        "st",
        "or"
      ],
      [
        "el",
        "s"
      ],
      [
        "ir",
        "d"
      ],
      [
        "ist",
        "ics"
      ],
      [
        "ap",
        "p"
      ],
      [
        "pop",
        "ular"
      ],
      [
        "liv",
        "ing"
      ],
      [
        "2",
        "6"
      ],
      [
        "2",
        "8"
      ],
      [
        "Q",
        "u"
      ],
      [
        "r",
        "ain"
      ],
      [
        "is",
        "ion"
      ],
      [
        "al",
        "t"
      ],
      [
        "re",
        "al"
      ],
      [
        "to",
        "ok"
      ],
      [
        "se",
        "t"
      ],
      [
        "201",
        "4"
      ],
      [
        "ican",
        "e"
      ],
      [
        "urr",
        "icane"
      ],
      [
        "chil",
        "dren"
      ],
      [
        "profess",
        "ional"
      ],
      [
        "B",
        "ella"
      ],
      [
        "c",
        "over"
      ],
      [
        "c",
        "urr"
      ],
      [
        "e",
        "ach"
      ],
      [
        "l",
        "ight"
      ],
      [
        "m",
        "od"
      ],
      [
        "t",
        "imes"
      ],
      [
        "at",
        "s"
      ],
      [
        "al",
        "y"
      ],
      [
        "of",
        "ten"
      ],
      [
        "om",
        "en"
      ],
      [
        "th",
        "or"
      ],
      [
        "ag",
        "o"
      ],
      [
        "St",
        "ate"
      ],
      [
        "ne",
        "y"
      ],
      [
        "uc",
        "k"
      ],
      [
        "D",
        "istrict"
      ],
      [
        "I",
        "MD"
      ],
      [
        "R",
        "ich"
      ],
      [
        "c",
        "ould"
      ],
      [
        "d",
        "id"
      ],
      [
        "ar",
        "ch"
      ],
      [
        "om",
        "et"
      ],
      [
        "ut",
        "e"
      ],
      [
        "ie",
        "f"
      ],
      [
        "199",
        "1"
      ],
      [
        "199",
        "9"
      ],
      [
        "Ed",
        "ward"
      ],
      [
        "IMD",
        "b"
      ],
      [
        "2",
        "7"
      ],
      [
        "G",
        "ames"
      ],
      [
        "S",
        "ão"
      ],
      [
        "S",
        "ultan"
      ],
      [
        "g",
        "ames"
      ],
      [
        "w",
        "in"
      ],
      [
        "er",
        "ed"
      ],
      [
        "al",
        "th"
      ],
      [
        "ed",
        "s"
      ],
      [
        "st",
        "em"
      ],
      [
        "ch",
        "ang"
      ],
      [
        "pl",
        "ants"
      ],
      [
        "200",
        "1"
      ],
      [
        "comp",
        "any"
      ],
      [
        "writ",
        "ten"
      ],
      [
        "appe",
        "ar"
      ],
      [
        "A",
        "ir"
      ],
      [
        "E",
        "x"
      ],
      [
        "W",
        "hen"
      ],
      [
        "c",
        "amp"
      ],
      [
        "n",
        "et"
      ],
      [
        "v",
        "an"
      ],
      [
        "y",
        "le"
      ],
      [
        "it",
        "z"
      ],
      [
        "st",
        "ud"
      ],
      [
        "se",
        "e"
      ],
      [
        "id",
        "ed"
      ],
      [
        "em",
        "p"
      ],
      [
        "Re",
        "g"
      ],
      [
        "char",
        "ac"
      ],
      [
        "E",
        "mp"
      ],
      [
        "M",
        "ic"
      ],
      [
        "S",
        "er"
      ],
      [
        "f",
        "iel"
      ],
      [
        "s",
        "ub"
      ],
      [
        "ay",
        "s"
      ],
      [
        "de",
        "pend"
      ],
      [
        "Ch",
        "ic"
      ],
      [
        "ect",
        "ed"
      ],
      [
        "Ger",
        "many"
      ],
      [
        "buil",
        "t"
      ],
      [
        "Paul",
        "o"
      ],
      [
        "rop",
        "ical"
      ],
      [
        "Y",
        "ou"
      ],
      [
        "f",
        "ol"
      ],
      [
        "p",
        "ur"
      ],
      [
        "s",
        "c"
      ],
      [
        "al",
        "k"
      ],
      [
        "as",
        "k"
      ],
      [
        "as",
        "ter"
      ],
      [
        "le",
        "ft"
      ],
      [
        "st",
        "e"
      ],
      [
        "th",
        "ing"
      ],
      [
        "all",
        "ow"
      ],
      [
        "op",
        "hy"
      ],
      [
        "Ch",
        "ar"
      ],
      [
        "amp",
        "le"
      ],
      [
        "over",
        "nor"
      ],
      [
        "lar",
        "ge"
      ],
      [
        "polit",
        "ician"
      ],
      [
        "3",
        "1"
      ],
      [
        "H",
        "er"
      ],
      [
        "H",
        "ockey"
      ],
      [
        "M",
        "il"
      ],
      [
        "W",
        "ash"
      ],
      [
        "b",
        "re"
      ],
      [
        "b",
        "ody"
      ],
      [
        "c",
        "ounty"
      ],
      [
        "h",
        "am"
      ],
      [
        "h",
        "old"
      ],
      [
        "m",
        "iss"
      ],
      [
        "s",
        "im"
      ],
      [
        "w",
        "inn"
      ],
      [
        "at",
        "ch"
      ],
      [
        "it",
        "ions"
      ],
      [
        "st",
        "ars"
      ],
      [
        "ing",
        "ton"
      ],
      [
        "ist",
        "ian"
      ],
      [
        "pro",
        "duc"
      ],
      [
        "pro",
        "gram"
      ],
      [
        "ex",
        "ample"
      ],
      [
        "str",
        "u"
      ],
      [
        "Austr",
        "alia"
      ],
      [
        "icip",
        "ality"
      ],
      [
        "How",
        "ever"
      ],
      [
        "I",
        "f"
      ],
      [
        "M",
        "o"
      ],
      [
        "N",
        "H"
      ],
      [
        "O",
        "ne"
      ],
      [
        "l",
        "ast"
      ],
      [
        "l",
        "angu"
      ],
      [
        "m",
        "em"
      ],
      [
        "s",
        "ou"
      ],
      [
        "s",
        "ign"
      ],
      [
        "v",
        "ers"
      ],
      [
        "an",
        "im"
      ],
      [
        "or",
        "gan"
      ],
      [
        "ad",
        "a"
      ],
      [
        "ch",
        "n"
      ],
      [
        "for",
        "d"
      ],
      [
        "ain",
        "s"
      ],
      [
        "Un",
        "ion"
      ],
      [
        "Com",
        "mon"
      ],
      [
        "incl",
        "ude"
      ],
      [
        "pop",
        "ulation"
      ],
      [
        "des",
        "ign"
      ],
      [
        ".",
        "."
      ],
      [
        "M",
        "us"
      ],
      [
        "V",
        "ol"
      ],
      [
        "h",
        "ow"
      ],
      [
        "h",
        "ost"
      ],
      [
        "h",
        "ouse"
      ],
      [
        "l",
        "or"
      ],
      [
        "l",
        "am"
      ],
      [
        "er",
        "a"
      ],
      [
        "on",
        "es"
      ],
      [
        "at",
        "ic"
      ],
      [
        "at",
        "ure"
      ],
      [
        "re",
        "at"
      ],
      [
        "ch",
        "an"
      ],
      [
        "ul",
        "l"
      ],
      [
        "av",
        "er"
      ],
      [
        "pro",
        "du"
      ],
      [
        "199",
        "2"
      ],
      [
        "199",
        "4"
      ],
      [
        "Amer",
        "ica"
      ],
      [
        "comp",
        "et"
      ],
      [
        "att",
        "le"
      ],
      [
        "bur",
        "g"
      ],
      [
        "Ph",
        "il"
      ],
      [
        "A",
        "m"
      ],
      [
        "D",
        "r"
      ],
      [
        "H",
        "all"
      ],
      [
        "L",
        "a"
      ],
      [
        "L",
        "i"
      ],
      [
        "N",
        "ot"
      ],
      [
        "W",
        "est"
      ],
      [
        "e",
        "k"
      ],
      [
        "g",
        "a"
      ],
      [
        "h",
        "igh"
      ],
      [
        "n",
        "d"
      ],
      [
        "o",
        "to"
      ],
      [
        "v",
        "ed"
      ],
      [
        "on",
        "s"
      ],
      [
        "ad",
        "o"
      ],
      [
        "us",
        "ually"
      ],
      [
        "oun",
        "ced"
      ],
      [
        "It",
        "s"
      ],
      [
        "200",
        "0"
      ],
      [
        "end",
        "er"
      ],
      [
        "ev",
        "en"
      ],
      [
        "Gre",
        "at"
      ],
      [
        "cont",
        "in"
      ],
      [
        "mil",
        "it"
      ],
      [
        "Geor",
        "ge"
      ],
      [
        "Russ",
        "ian"
      ],
      [
        "hum",
        "an"
      ],
      [
        "6",
        "0"
      ],
      [
        "D",
        "av"
      ],
      [
        "E",
        "ar"
      ],
      [
        "P",
        "ac"
      ],
      [
        "S",
        "m"
      ],
      [
        "c",
        "ensus"
      ],
      [
        "p",
        "p"
      ],
      [
        "p",
        "ower"
      ],
      [
        "==",
        "=="
      ],
      [
        "ar",
        "k"
      ],
      [
        "re",
        "am"
      ],
      [
        "ur",
        "ed"
      ],
      [
        "In",
        "ter"
      ],
      [
        "com",
        "mon"
      ],
      [
        "200",
        "3"
      ],
      [
        "our",
        "s"
      ],
      [
        "ip",
        "p"
      ],
      [
        "199",
        "6"
      ],
      [
        "199",
        "7"
      ],
      [
        "comp",
        "u"
      ],
      [
        "off",
        "ic"
      ],
      [
        "ret",
        "urn"
      ],
      [
        "Is",
        "land"
      ],
      [
        "met",
        "al"
      ],
      [
        "rest",
        "ling"
      ],
      [
        "bus",
        "iness"
      ],
      [
        "Rich",
        "ard"
      ],
      [
        "Emp",
        "ire"
      ],
      [
        "B",
        "ay"
      ],
      [
        "C",
        "am"
      ],
      [
        "D",
        "on"
      ],
      [
        "D",
        "uring"
      ],
      [
        "H",
        "ouse"
      ],
      [
        "J",
        "e"
      ],
      [
        "P",
        "ri"
      ],
      [
        "R",
        "oman"
      ],
      [
        "Y",
        "ear"
      ],
      [
        "c",
        "ast"
      ],
      [
        "f",
        "r"
      ],
      [
        "l",
        "l"
      ],
      [
        "s",
        "u"
      ],
      [
        "t",
        "it"
      ],
      [
        "en",
        "e"
      ],
      [
        "ed",
        "it"
      ],
      [
        "ic",
        "o"
      ],
      [
        "re",
        "m"
      ],
      [
        "st",
        "and"
      ],
      [
        "st",
        "ation"
      ],
      [
        "ur",
        "al"
      ],
      [
        "ir",
        "ed"
      ],
      [
        "um",
        "mer"
      ],
      [
        "wh",
        "ile"
      ],
      [
        "our",
        "t"
      ],
      [
        "pro",
        "ble"
      ],
      [
        "Un",
        "der"
      ],
      [
        "play",
        "s"
      ],
      [
        "An",
        "g"
      ],
      [
        "Eng",
        "land"
      ],
      [
        "fam",
        "ous"
      ],
      [
        "lead",
        "er"
      ],
      [
        "Europe",
        "an"
      ],
      [
        "curr",
        "ent"
      ],
      [
        "B",
        "er"
      ],
      [
        "D",
        "is"
      ],
      [
        "F",
        "A"
      ],
      [
        "L",
        "ond"
      ],
      [
        "M",
        "ex"
      ],
      [
        "S",
        "k"
      ],
      [
        "S",
        "y"
      ],
      [
        "i",
        "ens"
      ],
      [
        "m",
        "id"
      ],
      [
        "n",
        "a"
      ],
      [
        "in",
        "ed"
      ],
      [
        "ar",
        "m"
      ],
      [
        "re",
        "port"
      ],
      [
        "ad",
        "ium"
      ],
      [
        "ch",
        "rom"
      ],
      [
        "ro",
        "le"
      ],
      [
        "gr",
        "ad"
      ],
      [
        "ment",
        "s"
      ],
      [
        "go",
        "od"
      ],
      [
        "Com",
        "p"
      ],
      [
        "sing",
        "le"
      ],
      [
        "Ro",
        "bert"
      ],
      [
        "Canad",
        "a"
      ],
      [
        "Canad",
        "iens"
      ],
      [
        "Cl",
        "ub"
      ],
      [
        "stat",
        "istics"
      ],
      [
        "Part",
        "y"
      ],
      [
        "Green",
        "ville"
      ],
      [
        "P",
        "o"
      ],
      [
        "P",
        "al"
      ],
      [
        "R",
        "es"
      ],
      [
        "S",
        "al"
      ],
      [
        "c",
        "y"
      ],
      [
        "e",
        "g"
      ],
      [
        "f",
        "ather"
      ],
      [
        "g",
        "row"
      ],
      [
        "is",
        "es"
      ],
      [
        "is",
        "land"
      ],
      [
        "st",
        "ill"
      ],
      [
        "et",
        "s"
      ],
      [
        "ot",
        "e"
      ],
      [
        "ne",
        "xt"
      ],
      [
        "wh",
        "at"
      ],
      [
        "au",
        "thor"
      ],
      [
        "af",
        "f"
      ],
      [
        "iz",
        "ed"
      ],
      [
        "found",
        "ed"
      ],
      [
        "II",
        "I"
      ],
      [
        "ib",
        "le"
      ],
      [
        "group",
        "s"
      ],
      [
        "Ott",
        "oman"
      ],
      [
        "Mic",
        "hel"
      ],
      [
        "Lond",
        "on"
      ],
      [
        "B",
        "el"
      ],
      [
        "B",
        "ur"
      ],
      [
        "I",
        "r"
      ],
      [
        "M",
        "c"
      ],
      [
        "M",
        "ich"
      ],
      [
        "R",
        "ec"
      ],
      [
        "S",
        "om"
      ],
      [
        "S",
        "un"
      ],
      [
        "b",
        "ase"
      ],
      [
        "f",
        "ish"
      ],
      [
        "h",
        "istory"
      ],
      [
        "i",
        "ally"
      ],
      [
        "l",
        "ost"
      ],
      [
        "m",
        "i"
      ],
      [
        "v",
        "ill"
      ],
      [
        "it",
        "ar"
      ],
      [
        "av",
        "y"
      ],
      [
        "res",
        "ult"
      ],
      [
        "193",
        "6"
      ],
      [
        "ann",
        "el"
      ],
      [
        "sy",
        "stem"
      ],
      [
        "pos",
        "ition"
      ],
      [
        "spec",
        "ies"
      ],
      [
        "Japan",
        "ese"
      ],
      [
        "peri",
        "od"
      ],
      [
        "Tur",
        "k"
      ],
      [
        "R",
        "ound"
      ],
      [
        "S",
        "am"
      ],
      [
        "d",
        "am"
      ],
      [
        "d",
        "ist"
      ],
      [
        "f",
        "ew"
      ],
      [
        "g",
        "ot"
      ],
      [
        "m",
        "o"
      ],
      [
        "s",
        "chool"
      ],
      [
        "s",
        "elf"
      ],
      [
        "an",
        "other"
      ],
      [
        "am",
        "o"
      ],
      [
        "ad",
        "d"
      ],
      [
        "ro",
        "ck"
      ],
      [
        "id",
        "ence"
      ],
      [
        "be",
        "come"
      ],
      [
        "av",
        "ing"
      ],
      [
        "os",
        "a"
      ],
      [
        "199",
        "3"
      ],
      [
        "199",
        "8"
      ],
      [
        "18",
        "8"
      ],
      [
        "end",
        "ed"
      ],
      [
        "wor",
        "ks"
      ],
      [
        "An",
        "d"
      ],
      [
        "ang",
        "er"
      ],
      [
        "202",
        "4"
      ],
      [
        "Pl",
        "ay"
      ],
      [
        "spec",
        "ial"
      ],
      [
        "fol",
        "low"
      ],
      [
        "1",
        "00"
      ],
      [
        "J",
        "ack"
      ],
      [
        "M",
        "ost"
      ],
      [
        "M",
        "iss"
      ],
      [
        "M",
        "edia"
      ],
      [
        "N",
        "ev"
      ],
      [
        "V",
        "al"
      ],
      [
        "a",
        "el"
      ],
      [
        "t",
        "est"
      ],
      [
        "u",
        "es"
      ],
      [
        "u",
        "di"
      ],
      [
        "an",
        "amo"
      ],
      [
        "in",
        "formation"
      ],
      [
        "ar",
        "n"
      ],
      [
        "al",
        "es"
      ],
      [
        "re",
        "fer"
      ],
      [
        "ch",
        "ampion"
      ],
      [
        "id",
        "es"
      ],
      [
        "us",
        "ing"
      ],
      [
        "oun",
        "g"
      ],
      [
        "tr",
        "i"
      ],
      [
        "ce",
        "pt"
      ],
      [
        "ant",
        "anamo"
      ],
      [
        "au",
        "gh"
      ],
      [
        "198",
        "3"
      ],
      [
        "198",
        "9"
      ],
      [
        "me",
        "an"
      ],
      [
        "wo",
        "od"
      ],
      [
        "fe",
        "at"
      ],
      [
        "Gu",
        "antanamo"
      ],
      [
        "music",
        "ian"
      ],
      [
        "Bl",
        "ack"
      ],
      [
        "Lu",
        "is"
      ],
      [
        "ca",
        "used"
      ],
      [
        "kill",
        "ed"
      ],
      [
        ".",
        "\""
      ],
      [
        "L",
        "at"
      ],
      [
        "P",
        "op"
      ],
      [
        "S",
        "an"
      ],
      [
        "S",
        "tr"
      ],
      [
        "S",
        "oc"
      ],
      [
        "W",
        "ik"
      ],
      [
        "W",
        "restling"
      ],
      [
        "c",
        "al"
      ],
      [
        "d",
        "a"
      ],
      [
        "f",
        "all"
      ],
      [
        "f",
        "ive"
      ],
      [
        "f",
        "ind"
      ],
      [
        "g",
        "es"
      ],
      [
        "p",
        "rom"
      ],
      [
        "s",
        "il"
      ],
      [
        "s",
        "ix"
      ],
      [
        "v",
        "es"
      ],
      [
        "he",
        "ld"
      ],
      [
        "in",
        "c"
      ],
      [
        "re",
        "ce"
      ],
      [
        "id",
        "ge"
      ],
      [
        "pl",
        "an"
      ],
      [
        "wh",
        "ite"
      ],
      [
        "199",
        "5"
      ],
      [
        "cl",
        "ass"
      ],
      [
        "mar",
        "ried"
      ],
      [
        "Austr",
        "alian"
      ],
      [
        "Intern",
        "et"
      ],
      [
        "omet",
        "imes"
      ],
      [
        "9",
        "78"
      ],
      [
        "A",
        "ct"
      ],
      [
        "G",
        "en"
      ],
      [
        "L",
        "ist"
      ],
      [
        "S",
        "ummer"
      ],
      [
        "T",
        "om"
      ],
      [
        "b",
        "ro"
      ],
      [
        "d",
        "en"
      ],
      [
        "h",
        "on"
      ],
      [
        "l",
        "ate"
      ],
      [
        "m",
        "uch"
      ],
      [
        "v",
        "i"
      ],
      [
        "z",
        "a"
      ],
      [
        "in",
        "es"
      ],
      [
        "is",
        "ed"
      ],
      [
        "al",
        "ong"
      ],
      [
        "ad",
        "io"
      ],
      [
        "tr",
        "ies"
      ],
      [
        "te",
        "chn"
      ],
      [
        "199",
        "0"
      ],
      [
        "act",
        "ion"
      ],
      [
        "ex",
        "t"
      ],
      [
        "ev",
        "ent"
      ],
      [
        "li",
        "k"
      ],
      [
        "uc",
        "cess"
      ],
      [
        "go",
        "als"
      ],
      [
        "sk",
        "y"
      ],
      [
        "coun",
        "try"
      ],
      [
        "Award",
        "s"
      ],
      [
        "prison",
        "ers"
      ],
      [
        "milit",
        "ary"
      ],
      [
        "0",
        "4"
      ],
      [
        "0",
        "9"
      ],
      [
        "J",
        "ew"
      ],
      [
        "M",
        "ur"
      ],
      [
        "P",
        "er"
      ],
      [
        "S",
        "ch"
      ],
      [
        "S",
        "ong"
      ],
      [
        "b",
        "an"
      ],
      [
        "d",
        "om"
      ],
      [
        "e",
        "ast"
      ],
      [
        "g",
        "s"
      ],
      [
        "l",
        "im"
      ],
      [
        "m",
        "ount"
      ],
      [
        "n",
        "ov"
      ],
      [
        "n",
        "ess"
      ],
      [
        "o",
        "y"
      ],
      [
        "o",
        "ice"
      ],
      [
        "p",
        "es"
      ],
      [
        "p",
        "ut"
      ],
      [
        "t",
        "al"
      ],
      [
        "st",
        "yle"
      ],
      [
        "il",
        "ity"
      ],
      [
        "ac",
        "c"
      ],
      [
        "ro",
        "y"
      ],
      [
        "us",
        "es"
      ],
      [
        "enc",
        "y"
      ],
      [
        "St",
        "an"
      ],
      [
        "sh",
        "ort"
      ],
      [
        "aw",
        "ard"
      ],
      [
        "sp",
        "ir"
      ],
      [
        "198",
        "7"
      ],
      [
        "198",
        "8"
      ],
      [
        "chil",
        "d"
      ],
      [
        "iet",
        "y"
      ],
      [
        "Sup",
        "er"
      ],
      [
        "chang",
        "ed"
      ],
      [
        "charac",
        "ter"
      ],
      [
        "mem",
        "bers"
      ],
      [
        "0",
        "3"
      ],
      [
        "0",
        "8"
      ],
      [
        "E",
        "ast"
      ],
      [
        "F",
        "I"
      ],
      [
        "H",
        "urricane"
      ],
      [
        "J",
        "ames"
      ],
      [
        "M",
        "any"
      ],
      [
        "R",
        "ed"
      ],
      [
        "S",
        "ov"
      ],
      [
        "W",
        "E"
      ],
      [
        "c",
        "ame"
      ],
      [
        "c",
        "her"
      ],
      [
        "e",
        "y"
      ],
      [
        "n",
        "al"
      ],
      [
        "p",
        "ass"
      ],
      [
        "q",
        "ue"
      ],
      [
        "w",
        "w"
      ],
      [
        "he",
        "s"
      ],
      [
        "in",
        "tern"
      ],
      [
        "at",
        "a"
      ],
      [
        "as",
        "es"
      ],
      [
        "and",
        "s"
      ],
      [
        "re",
        "present"
      ],
      [
        "le",
        "te"
      ],
      [
        "un",
        "d"
      ],
      [
        "os",
        "p"
      ],
      [
        "comp",
        "os"
      ],
      [
        "dr",
        "ama"
      ],
      [
        "ree",
        "k"
      ],
      [
        "lar",
        "gest"
      ],
      [
        "min",
        "istr"
      ],
      [
        "rel",
        "ated"
      ],
      [
        "mil",
        "es"
      ],
      [
        "Brazil",
        "ian"
      ],
      [
        "Sec",
        "ret"
      ],
      [
        "A",
        "A"
      ],
      [
        "A",
        "z"
      ],
      [
        "D",
        "u"
      ],
      [
        "H",
        "am"
      ],
      [
        "M",
        "ad"
      ],
      [
        "N",
        "ass"
      ],
      [
        "W",
        "WE"
      ],
      [
        "g",
        "in"
      ],
      [
        "g",
        "iv"
      ],
      [
        "g",
        "ave"
      ],
      [
        "h",
        "istor"
      ],
      [
        "l",
        "ov"
      ],
      [
        "l",
        "ess"
      ],
      [
        "t",
        "ion"
      ],
      [
        "er",
        "y"
      ],
      [
        "ic",
        "es"
      ],
      [
        "ent",
        "al"
      ],
      [
        "se",
        "at"
      ],
      [
        "ur",
        "ch"
      ],
      [
        "ul",
        "a"
      ],
      [
        "et",
        "t"
      ],
      [
        "em",
        "y"
      ],
      [
        "ot",
        "s"
      ],
      [
        "com",
        "ed"
      ],
      [
        "with",
        "out"
      ],
      [
        "act",
        "iv"
      ],
      [
        "cl",
        "ub"
      ],
      [
        "wor",
        "d"
      ],
      [
        "ph",
        "a"
      ],
      [
        "go",
        "al"
      ],
      [
        "oss",
        "il"
      ],
      [
        "Chr",
        "istian"
      ],
      [
        "vill",
        "age"
      ],
      [
        "3",
        "4"
      ],
      [
        "A",
        "BC"
      ],
      [
        "C",
        "ap"
      ],
      [
        "D",
        "iv"
      ],
      [
        "E",
        "m"
      ],
      [
        "H",
        "um"
      ],
      [
        "K",
        "ar"
      ],
      [
        "M",
        "ov"
      ],
      [
        "P",
        "ort"
      ],
      [
        "W",
        "il"
      ],
      [
        "a",
        "x"
      ],
      [
        "d",
        "igital"
      ],
      [
        "l",
        "og"
      ],
      [
        "m",
        "it"
      ],
      [
        "n",
        "y"
      ],
      [
        "n",
        "omin"
      ],
      [
        "p",
        "s"
      ],
      [
        "u",
        "k"
      ],
      [
        "v",
        "ar"
      ],
      [
        "or",
        "d"
      ],
      [
        "ed",
        "uc"
      ],
      [
        "ad",
        "es"
      ],
      [
        "ol",
        "ina"
      ],
      [
        "se",
        "en"
      ],
      [
        "iv",
        "il"
      ],
      [
        "id",
        "a"
      ],
      [
        "ec",
        "onom"
      ],
      [
        "res",
        "p"
      ],
      [
        "ph",
        "il"
      ],
      [
        "mon",
        "th"
      ],
      [
        "dis",
        "e"
      ],
      [
        "includ",
        "ed"
      ],
      [
        "Bo",
        "ok"
      ],
      [
        "Sw",
        "ed"
      ],
      [
        "coun",
        "tries"
      ],
      [
        "plac",
        "es"
      ],
      [
        "fiel",
        "d"
      ],
      [
        "Chic",
        "ago"
      ],
      [
        "hold",
        "s"
      ],
      [
        "stru",
        "ct"
      ],
      [
        "Mich",
        "ael"
      ],
      [
        "0",
        "2"
      ],
      [
        "3",
        "5"
      ],
      [
        "6",
        "4"
      ],
      [
        "B",
        "ut"
      ],
      [
        "C",
        "A"
      ],
      [
        "C",
        "ath"
      ],
      [
        "D",
        "igital"
      ],
      [
        "J",
        "er"
      ],
      [
        "J",
        "ac"
      ],
      [
        "M",
        "or"
      ],
      [
        "M",
        "et"
      ],
      [
        "M",
        "art"
      ],
      [
        "N",
        "A"
      ],
      [
        "T",
        "ag"
      ],
      [
        "b",
        "a"
      ],
      [
        "c",
        "ell"
      ],
      [
        "e",
        "very"
      ],
      [
        "i",
        "ation"
      ],
      [
        "n",
        "ation"
      ],
      [
        "p",
        "an"
      ],
      [
        "s",
        "en"
      ],
      [
        "s",
        "uccess"
      ],
      [
        "t",
        "w"
      ],
      [
        "t",
        "our"
      ],
      [
        "z",
        "y"
      ],
      [
        "{",
        "\\"
      ],
      [
        "om",
        "b"
      ],
      [
        "il",
        "ar"
      ],
      [
        "ac",
        "y"
      ],
      [
        "av",
        "es"
      ],
      [
        "ak",
        "en"
      ],
      [
        "amp",
        "ions"
      ],
      [
        "me",
        "ans"
      ],
      [
        "197",
        "7"
      ],
      [
        "co",
        "ast"
      ],
      [
        "ann",
        "ounced"
      ],
      [
        "lo",
        "ok"
      ],
      [
        "De",
        "partment"
      ],
      [
        "Gr",
        "and"
      ],
      [
        "loc",
        "ated"
      ],
      [
        "itt",
        "le"
      ],
      [
        "Cath",
        "ol"
      ],
      [
        "7",
        "0"
      ],
      [
        "A",
        "bor"
      ],
      [
        "B",
        "y"
      ],
      [
        "G",
        "overnor"
      ],
      [
        "K",
        "at"
      ],
      [
        "L",
        "o"
      ],
      [
        "R",
        "en"
      ],
      [
        "S",
        "chool"
      ],
      [
        "V",
        "ir"
      ],
      [
        "W",
        "estern"
      ],
      [
        "b",
        "road"
      ],
      [
        "c",
        "tr"
      ],
      [
        "d",
        "own"
      ],
      [
        "f",
        "ight"
      ],
      [
        "f",
        "ood"
      ],
      [
        "m",
        "ight"
      ],
      [
        "m",
        "aking"
      ],
      [
        "n",
        "ect"
      ],
      [
        "s",
        "is"
      ],
      [
        "s",
        "pe"
      ],
      [
        "t",
        "or"
      ],
      [
        "t",
        "em"
      ],
      [
        "t",
        "ect"
      ],
      [
        "v",
        "al"
      ],
      [
        "w",
        "ine"
      ],
      [
        "ic",
        "le"
      ],
      [
        "th",
        "ough"
      ],
      [
        "ad",
        "or"
      ],
      [
        "se",
        "a"
      ],
      [
        "se",
        "ct"
      ],
      [
        "Re",
        "public"
      ],
      [
        "ex",
        "p"
      ],
      [
        "ex",
        "ist"
      ],
      [
        "198",
        "0"
      ],
      [
        "ri",
        "end"
      ],
      [
        "194",
        "5"
      ],
      [
        "ele",
        "ction"
      ],
      [
        "song",
        "s"
      ],
      [
        "192",
        "6"
      ],
      [
        "cont",
        "rol"
      ],
      [
        "grap",
        "h"
      ],
      [
        "Car",
        "olina"
      ],
      [
        "buil",
        "ding"
      ],
      [
        "cr",
        "ip"
      ],
      [
        "Fl",
        "or"
      ],
      [
        "direct",
        "ed"
      ],
      [
        "press",
        "ion"
      ],
      [
        "Afr",
        "ican"
      ],
      [
        "fil",
        "m"
      ],
      [
        "Wash",
        "ington"
      ],
      [
        "Dav",
        "id"
      ],
      [
        "compu",
        "ter"
      ],
      [
        "Ang",
        "el"
      ],
      [
        "rece",
        "ived"
      ],
      [
        "Nass",
        "au"
      ],
      [
        "Abor",
        "igin"
      ],
      [
        "B",
        "est"
      ],
      [
        "E",
        "v"
      ],
      [
        "F",
        "ootball"
      ],
      [
        "L",
        "aw"
      ],
      [
        "L",
        "ove"
      ],
      [
        "S",
        "en"
      ],
      [
        "S",
        "ou"
      ],
      [
        "Z",
        "e"
      ],
      [
        "c",
        "ult"
      ],
      [
        "f",
        "ur"
      ],
      [
        "f",
        "ect"
      ],
      [
        "p",
        "i"
      ],
      [
        "s",
        "ent"
      ],
      [
        "t",
        "ed"
      ],
      [
        "y",
        "er"
      ],
      [
        "he",
        "re"
      ],
      [
        "ar",
        "ia"
      ],
      [
        "it",
        "ect"
      ],
      [
        "om",
        "ans"
      ],
      [
        "le",
        "ge"
      ],
      [
        "le",
        "ague"
      ],
      [
        "th",
        "ird"
      ],
      [
        "id",
        "ae"
      ],
      [
        "tr",
        "ad"
      ],
      [
        "ne",
        "ed"
      ],
      [
        "man",
        "ag"
      ],
      [
        "our",
        "nal"
      ],
      [
        "one",
        "y"
      ],
      [
        "ty",
        "pe"
      ],
      [
        "ok",
        "a"
      ],
      [
        "ph",
        "ys"
      ],
      [
        "194",
        "2"
      ],
      [
        "cent",
        "ral"
      ],
      [
        "off",
        "icial"
      ],
      [
        "ash",
        "i"
      ],
      [
        "Th",
        "om"
      ],
      [
        "work",
        "ed"
      ],
      [
        "loc",
        "al"
      ],
      [
        "help",
        "ed"
      ],
      [
        "Cent",
        "ral"
      ],
      [
        "mat",
        "ch"
      ],
      [
        "giv",
        "en"
      ],
      [
        "0",
        "7"
      ],
      [
        "4",
        "8"
      ],
      [
        "C",
        "areer"
      ],
      [
        "F",
        "irst"
      ],
      [
        "G",
        "reek"
      ],
      [
        "H",
        "y"
      ],
      [
        "H",
        "en"
      ],
      [
        "L",
        "ife"
      ],
      [
        "M",
        "ag"
      ],
      [
        "S",
        "im"
      ],
      [
        "T",
        "o"
      ],
      [
        "U",
        "p"
      ],
      [
        "V",
        "is"
      ],
      [
        "b",
        "as"
      ],
      [
        "c",
        "ities"
      ],
      [
        "e",
        "astern"
      ],
      [
        "f",
        "ar"
      ],
      [
        "f",
        "ossil"
      ],
      [
        "h",
        "ol"
      ],
      [
        "i",
        "y"
      ],
      [
        "m",
        "other"
      ],
      [
        "p",
        "ec"
      ],
      [
        "r",
        "ac"
      ],
      [
        "s",
        "ometimes"
      ],
      [
        "an",
        "ish"
      ],
      [
        "in",
        "v"
      ],
      [
        "in",
        "depend"
      ],
      [
        "at",
        "o"
      ],
      [
        "le",
        "x"
      ],
      [
        "th",
        "ought"
      ],
      [
        "im",
        "ate"
      ],
      [
        "op",
        "en"
      ],
      [
        "ian",
        "s"
      ],
      [
        "tr",
        "ain"
      ],
      [
        "cl",
        "ose"
      ],
      [
        "ra",
        "il"
      ],
      [
        "comp",
        "let"
      ],
      [
        "dis",
        "play"
      ],
      [
        "mun",
        "icipality"
      ],
      [
        "nor",
        "thern"
      ],
      [
        "ci",
        "ence"
      ],
      [
        "ik",
        "i"
      ],
      [
        "cap",
        "t"
      ],
      [
        "buil",
        "d"
      ],
      [
        "cord",
        "ing"
      ],
      [
        "gy",
        "pt"
      ],
      [
        "sw",
        "amp"
      ],
      [
        "cient",
        "ists"
      ],
      [
        "cover",
        "ed"
      ],
      [
        "NH",
        "L"
      ],
      [
        "chan",
        "ge"
      ],
      [
        "Sov",
        "iet"
      ],
      [
        ".",
        ","
      ],
      [
        "2",
        "nd"
      ],
      [
        "D",
        "j"
      ],
      [
        "E",
        "r"
      ],
      [
        "F",
        "il"
      ],
      [
        "J",
        "im"
      ],
      [
        "J",
        "ud"
      ],
      [
        "M",
        "ed"
      ],
      [
        "N",
        "az"
      ],
      [
        "T",
        "or"
      ],
      [
        "T",
        "our"
      ],
      [
        "T",
        "ex"
      ],
      [
        "b",
        "it"
      ],
      [
        "c",
        "u"
      ],
      [
        "d",
        "et"
      ],
      [
        "d",
        "ue"
      ],
      [
        "e",
        "i"
      ],
      [
        "f",
        "act"
      ],
      [
        "h",
        "ig"
      ],
      [
        "i",
        "j"
      ],
      [
        "m",
        "b"
      ],
      [
        "m",
        "ing"
      ],
      [
        "m",
        "akes"
      ],
      [
        "n",
        "ing"
      ],
      [
        "r",
        "ul"
      ],
      [
        "s",
        "it"
      ],
      [
        "u",
        "z"
      ],
      [
        "v",
        "ict"
      ],
      [
        "he",
        "art"
      ],
      [
        "er",
        "r"
      ],
      [
        "on",
        "t"
      ],
      [
        "at",
        "ors"
      ],
      [
        "al",
        "f"
      ],
      [
        "to",
        "day"
      ],
      [
        "st",
        "ory"
      ],
      [
        "st",
        "adium"
      ],
      [
        "ad",
        "emy"
      ],
      [
        "iv",
        "al"
      ],
      [
        "id",
        "s"
      ],
      [
        "be",
        "g"
      ],
      [
        "be",
        "com"
      ],
      [
        "im",
        "edia"
      ],
      [
        "pl",
        "y"
      ],
      [
        "av",
        "al"
      ],
      [
        "ian",
        "o"
      ],
      [
        "tr",
        "a"
      ],
      [
        "ill",
        "er"
      ],
      [
        "Ar",
        "th"
      ],
      [
        "aw",
        "ay"
      ],
      [
        "198",
        "4"
      ],
      [
        "198",
        "6"
      ],
      [
        "ph",
        "y"
      ],
      [
        "197",
        "3"
      ],
      [
        "194",
        "1"
      ],
      [
        "day",
        "s"
      ],
      [
        "Sp",
        "anish"
      ],
      [
        "publ",
        "ished"
      ],
      [
        "anc",
        "es"
      ],
      [
        "gen",
        "eral"
      ],
      [
        "Olymp",
        "ic"
      ],
      [
        "eng",
        "ine"
      ],
      [
        "At",
        "l"
      ],
      [
        "gre",
        "at"
      ],
      [
        "Te",
        "am"
      ],
      [
        "Afr",
        "ica"
      ],
      [
        "sup",
        "port"
      ],
      [
        "stud",
        "y"
      ],
      [
        "allow",
        "ed"
      ],
      [
        "sim",
        "ilar"
      ],
      [
        "Common",
        "s"
      ],
      [
        "Je",
        "an"
      ],
      [
        "Pri",
        "ze"
      ],
      [
        "result",
        "s"
      ],
      [
        "Lat",
        "in"
      ],
      [
        "Wik",
        "imedia"
      ],
      [
        "Cathol",
        "ic"
      ],
      [
        "Vir",
        "gin"
      ],
      [
        "5",
        "5"
      ],
      [
        "B",
        "or"
      ],
      [
        "C",
        "E"
      ],
      [
        "C",
        "ong"
      ],
      [
        "D",
        "em"
      ],
      [
        "E",
        "le"
      ],
      [
        "F",
        "rom"
      ],
      [
        "H",
        "istor"
      ],
      [
        "M",
        "ir"
      ],
      [
        "M",
        "un"
      ],
      [
        "N",
        "ig"
      ],
      [
        "O",
        "l"
      ],
      [
        "T",
        "ele"
      ],
      [
        "Z",
        "iz"
      ],
      [
        "c",
        "rit"
      ],
      [
        "d",
        "y"
      ],
      [
        "d",
        "le"
      ],
      [
        "d",
        "el"
      ],
      [
        "e",
        "ff"
      ],
      [
        "g",
        "al"
      ],
      [
        "h",
        "ard"
      ],
      [
        "i",
        "or"
      ],
      [
        "k",
        "a"
      ],
      [
        "m",
        "ag"
      ],
      [
        "s",
        "ay"
      ],
      [
        "s",
        "qu"
      ],
      [
        "t",
        "ake"
      ],
      [
        "u",
        "le"
      ],
      [
        "v",
        "ir"
      ],
      [
        "en",
        "se"
      ],
      [
        "at",
        "ab"
      ],
      [
        "le",
        "vel"
      ],
      [
        "The",
        "ir"
      ],
      [
        "se",
        "ven"
      ],
      [
        "ur",
        "a"
      ],
      [
        "ter",
        "m"
      ],
      [
        "av",
        "el"
      ],
      [
        "ian",
        "a"
      ],
      [
        "tr",
        "act"
      ],
      [
        "ate",
        "g"
      ],
      [
        "ex",
        "pl"
      ],
      [
        "Ar",
        "t"
      ],
      [
        "own",
        "ed"
      ],
      [
        "197",
        "2"
      ],
      [
        "197",
        "5"
      ],
      [
        "iz",
        "ation"
      ],
      [
        "194",
        "0"
      ],
      [
        "io",
        "graphy"
      ],
      [
        "mar",
        "k"
      ],
      [
        "po",
        "et"
      ],
      [
        "row",
        "n"
      ],
      [
        "prov",
        "ince"
      ],
      [
        "vol",
        "ution"
      ],
      [
        "Ott",
        "omans"
      ],
      [
        "Ind",
        "ia"
      ],
      [
        "jo",
        "ined"
      ],
      [
        "plac",
        "ed"
      ],
      [
        "bl",
        "ack"
      ],
      [
        "Ac",
        "ademy"
      ],
      [
        "appear",
        "ed"
      ],
      [
        "langu",
        "age"
      ],
      [
        "vers",
        "ion"
      ],
      [
        "tit",
        "le"
      ],
      [
        "proble",
        "ms"
      ],
      [
        "Nev",
        "ada"
      ],
      [
        "pha",
        "bet"
      ],
      [
        "Tex",
        "as"
      ],
      [
        "Arth",
        "ur"
      ],
      [
        "A",
        "E"
      ],
      [
        "A",
        "u"
      ],
      [
        "B",
        "ro"
      ],
      [
        "D",
        "ay"
      ],
      [
        "E",
        "astern"
      ],
      [
        "G",
        "l"
      ],
      [
        "H",
        "on"
      ],
      [
        "H",
        "un"
      ],
      [
        "M",
        "ount"
      ],
      [
        "R",
        "et"
      ],
      [
        "S",
        "a"
      ],
      [
        "T",
        "re"
      ],
      [
        "T",
        "op"
      ],
      [
        "T",
        "own"
      ],
      [
        "b",
        "ed"
      ],
      [
        "d",
        "est"
      ],
      [
        "h",
        "ar"
      ],
      [
        "h",
        "med"
      ],
      [
        "h",
        "app"
      ],
      [
        "s",
        "ound"
      ],
      [
        "s",
        "aw"
      ],
      [
        "t",
        "urn"
      ],
      [
        "u",
        "el"
      ],
      [
        "in",
        "ho"
      ],
      [
        "ar",
        "ies"
      ],
      [
        "th",
        "ings"
      ],
      [
        "th",
        "ose"
      ],
      [
        "ac",
        "hed"
      ],
      [
        "ac",
        "ross"
      ],
      [
        "ad",
        "v"
      ],
      [
        "ch",
        "annel"
      ],
      [
        "se",
        "tt"
      ],
      [
        "ot",
        "a"
      ],
      [
        "um",
        "ent"
      ],
      [
        "de",
        "f"
      ],
      [
        "de",
        "fe"
      ],
      [
        "ber",
        "g"
      ],
      [
        "est",
        "ab"
      ],
      [
        "Ch",
        "ampions"
      ],
      [
        "St",
        "or"
      ],
      [
        "od",
        "es"
      ],
      [
        "oc",
        "c"
      ],
      [
        "sh",
        "ar"
      ],
      [
        "ear",
        "ch"
      ],
      [
        "Ar",
        "ab"
      ],
      [
        "197",
        "9"
      ],
      [
        "co",
        "ach"
      ],
      [
        "ind",
        "ic"
      ],
      [
        "193",
        "8"
      ],
      [
        "196",
        "8"
      ],
      [
        "song",
        "writer"
      ],
      [
        "Be",
        "fore"
      ],
      [
        "Canad",
        "ian"
      ],
      [
        "Pol",
        "ish"
      ],
      [
        "direct",
        "or"
      ],
      [
        "Min",
        "ister"
      ],
      [
        "Air",
        "port"
      ],
      [
        "Under",
        "ground"
      ],
      [
        "osa",
        "ur"
      ],
      [
        "tri",
        "but"
      ],
      [
        "Secret",
        "ary"
      ],
      [
        "Port",
        "ug"
      ],
      [
        "Aborigin",
        "al"
      ],
      [
        "display",
        "style"
      ],
      [
        "6",
        "5"
      ],
      [
        "A",
        "g"
      ],
      [
        "B",
        "ec"
      ],
      [
        "C",
        "O"
      ],
      [
        "C",
        "ze"
      ],
      [
        "D",
        "o"
      ],
      [
        "G",
        "old"
      ],
      [
        "H",
        "ol"
      ],
      [
        "L",
        "ater"
      ],
      [
        "M",
        "ust"
      ],
      [
        "M",
        "ises"
      ],
      [
        "S",
        "o"
      ],
      [
        "b",
        "ir"
      ],
      [
        "c",
        "ross"
      ],
      [
        "f",
        "riend"
      ],
      [
        "h",
        "aving"
      ],
      [
        "h",
        "alf"
      ],
      [
        "m",
        "al"
      ],
      [
        "m",
        "ass"
      ],
      [
        "n",
        "ic"
      ],
      [
        "o",
        "graphy"
      ],
      [
        "r",
        "ap"
      ],
      [
        "r",
        "iver"
      ],
      [
        "s",
        "l"
      ],
      [
        "s",
        "ug"
      ],
      [
        "t",
        "ro"
      ],
      [
        "w",
        "a"
      ],
      [
        "w",
        "estern"
      ],
      [
        "w",
        "omen"
      ],
      [
        "y",
        "ou"
      ],
      [
        "or",
        "ds"
      ],
      [
        "al",
        "phabet"
      ],
      [
        "re",
        "main"
      ],
      [
        "ig",
        "r"
      ],
      [
        "ul",
        "us"
      ],
      [
        "tr",
        "ack"
      ],
      [
        "ab",
        "ility"
      ],
      [
        "ill",
        "s"
      ],
      [
        "con",
        "cer"
      ],
      [
        "our",
        "i"
      ],
      [
        "ish",
        "op"
      ],
      [
        "act",
        "ive"
      ],
      [
        "af",
        "a"
      ],
      [
        "aw",
        "n"
      ],
      [
        "An",
        "t"
      ],
      [
        "kn",
        "ow"
      ],
      [
        "197",
        "6"
      ],
      [
        "can",
        "cer"
      ],
      [
        "194",
        "7"
      ],
      [
        "193",
        "2"
      ],
      [
        "mar",
        "oon"
      ],
      [
        "way",
        "s"
      ],
      [
        "col",
        "or"
      ],
      [
        "rel",
        "ig"
      ],
      [
        "show",
        "s"
      ],
      [
        "football",
        "er"
      ],
      [
        "serv",
        "ed"
      ],
      [
        "Sc",
        "ott"
      ],
      [
        "gu",
        "itar"
      ],
      [
        "King",
        "dom"
      ],
      [
        "km",
        "2"
      ],
      [
        "itz",
        "er"
      ],
      [
        "Char",
        "les"
      ],
      [
        "miss",
        "ion"
      ],
      [
        "grad",
        "u"
      ],
      [
        "udi",
        "o"
      ],
      [
        "nov",
        "el"
      ],
      [
        "Jac",
        "ob"
      ],
      [
        "Dj",
        "ado"
      ],
      [
        "Atl",
        "ant"
      ],
      [
        "Virgin",
        "ia"
      ],
      [
        "Nig",
        "er"
      ],
      [
        "Ziz",
        "inho"
      ],
      [
        ")",
        ":"
      ],
      [
        "0",
        "5"
      ],
      [
        "B",
        "us"
      ],
      [
        "B",
        "ob"
      ],
      [
        "C",
        "al"
      ],
      [
        "F",
        "ed"
      ],
      [
        "K",
        "ore"
      ],
      [
        "L",
        "ab"
      ],
      [
        "M",
        "as"
      ],
      [
        "M",
        "ac"
      ],
      [
        "P",
        "le"
      ],
      [
        "T",
        "od"
      ],
      [
        "U",
        "k"
      ],
      [
        "W",
        "inn"
      ],
      [
        "b",
        "urn"
      ],
      [
        "c",
        "il"
      ],
      [
        "c",
        "el"
      ],
      [
        "c",
        "op"
      ],
      [
        "d",
        "augh"
      ],
      [
        "h",
        "ab"
      ],
      [
        "i",
        "us"
      ],
      [
        "j",
        "ust"
      ],
      [
        "n",
        "on"
      ],
      [
        "p",
        "a"
      ],
      [
        "r",
        "ic"
      ],
      [
        "s",
        "ite"
      ],
      [
        "t",
        "ropical"
      ],
      [
        "v",
        "ot"
      ],
      [
        "w",
        "ro"
      ],
      [
        "the",
        "ast"
      ],
      [
        "is",
        "a"
      ],
      [
        "as",
        "tr"
      ],
      [
        "re",
        "c"
      ],
      [
        "re",
        "ed"
      ],
      [
        "st",
        "on"
      ],
      [
        "am",
        "ent"
      ],
      [
        "20",
        "th"
      ],
      [
        "ur",
        "t"
      ],
      [
        "are",
        "as"
      ],
      [
        "It",
        "aly"
      ],
      [
        "oc",
        "r"
      ],
      [
        "ge",
        "ther"
      ],
      [
        "part",
        "s"
      ],
      [
        "aw",
        "a"
      ],
      [
        "qu",
        "est"
      ],
      [
        "mov",
        "ies"
      ],
      [
        "br",
        "and"
      ],
      [
        "Se",
        "a"
      ],
      [
        "cent",
        "er"
      ],
      [
        "195",
        "1"
      ],
      [
        "195",
        "2"
      ],
      [
        "ward",
        "s"
      ],
      [
        "str",
        "ong"
      ],
      [
        "As",
        "soc"
      ],
      [
        "reg",
        "ular"
      ],
      [
        "De",
        "ath"
      ],
      [
        "Austr",
        "ian"
      ],
      [
        "Pro",
        "v"
      ],
      [
        "sk",
        "i"
      ],
      [
        "polit",
        "ical"
      ],
      [
        "Fl",
        "our"
      ],
      [
        "liv",
        "es"
      ],
      [
        "Cent",
        "er"
      ],
      [
        "mat",
        "ches"
      ],
      [
        "develop",
        "ed"
      ],
      [
        "don",
        "key"
      ],
      [
        "Mil",
        "an"
      ],
      [
        "Mus",
        "ic"
      ],
      [
        "house",
        "holds"
      ],
      [
        "chrom",
        "ium"
      ],
      [
        "Gen",
        "eral"
      ],
      [
        "Mov",
        "ie"
      ],
      [
        "wro",
        "te"
      ],
      [
        "0",
        "1"
      ],
      [
        "0",
        "6"
      ],
      [
        "3",
        "3"
      ],
      [
        "6",
        "8"
      ],
      [
        "D",
        "a"
      ],
      [
        "F",
        "C"
      ],
      [
        "G",
        "od"
      ],
      [
        "I",
        "ran"
      ],
      [
        "U",
        "r"
      ],
      [
        "W",
        "is"
      ],
      [
        "W",
        "omen"
      ],
      [
        "b",
        "i"
      ],
      [
        "d",
        "ie"
      ],
      [
        "e",
        "qu"
      ],
      [
        "g",
        "ia"
      ],
      [
        "h",
        "ockey"
      ],
      [
        "j",
        "ournal"
      ],
      [
        "k",
        "ing"
      ],
      [
        "l",
        "ot"
      ],
      [
        "r",
        "ace"
      ],
      [
        "t",
        "ell"
      ],
      [
        "v",
        "ious"
      ],
      [
        "st",
        "ates"
      ],
      [
        "19",
        "th"
      ],
      [
        "ol",
        "f"
      ],
      [
        "ow",
        "ers"
      ],
      [
        "ist",
        "an"
      ],
      [
        "ec",
        "ut"
      ],
      [
        "In",
        "formation"
      ],
      [
        "av",
        "or"
      ],
      [
        "ain",
        "e"
      ],
      [
        "tr",
        "ib"
      ],
      [
        "St",
        "ation"
      ],
      [
        "ne",
        "ver"
      ],
      [
        "te",
        "e"
      ],
      [
        "au",
        "g"
      ],
      [
        "au",
        "di"
      ],
      [
        "play",
        "ing"
      ],
      [
        "cl",
        "os"
      ],
      [
        "ran",
        "ch"
      ],
      [
        "wor",
        "ds"
      ],
      [
        "198",
        "2"
      ],
      [
        "198",
        "5"
      ],
      [
        "qu",
        "ar"
      ],
      [
        "Le",
        "g"
      ],
      [
        "195",
        "6"
      ],
      [
        "196",
        "6"
      ],
      [
        "Fran",
        "k"
      ],
      [
        "ele",
        "ctr"
      ],
      [
        "fl",
        "u"
      ],
      [
        "team",
        "s"
      ],
      [
        "anc",
        "ial"
      ],
      [
        "ful",
        "l"
      ],
      [
        "div",
        "ision"
      ],
      [
        "Pol",
        "and"
      ],
      [
        "Wh",
        "ite"
      ],
      [
        "book",
        "s"
      ],
      [
        "ox",
        "ide"
      ],
      [
        "tain",
        "ment"
      ],
      [
        "Ab",
        "out"
      ],
      [
        "elect",
        "ed"
      ],
      [
        "stit",
        "ution"
      ],
      [
        "emp",
        "ire"
      ],
      [
        "ste",
        "ad"
      ],
      [
        "produc",
        "er"
      ],
      [
        "contin",
        "u"
      ],
      [
        "return",
        "ed"
      ],
      [
        "base",
        "ball"
      ],
      [
        "Jack",
        "son"
      ],
      [
        "Stan",
        "ley"
      ],
      [
        "intern",
        "ational"
      ],
      [
        "Swed",
        "en"
      ],
      [
        "crip",
        "tion"
      ],
      [
        "Flor",
        "ida"
      ],
      [
        "Thom",
        "as"
      ],
      [
        "Hy",
        "omin"
      ],
      [
        "Cong",
        "ress"
      ],
      [
        "atab",
        "ase"
      ],
      [
        "Cze",
        "ch"
      ],
      [
        "Uk",
        "rain"
      ],
      [
        "3",
        "6"
      ],
      [
        "3",
        "8"
      ],
      [
        "5",
        "6"
      ],
      [
        "9",
        "0"
      ],
      [
        "9",
        "6"
      ],
      [
        "B",
        "ush"
      ],
      [
        "B",
        "attle"
      ],
      [
        "C",
        "ir"
      ],
      [
        "D",
        "es"
      ],
      [
        "D",
        "el"
      ],
      [
        "D",
        "ev"
      ],
      [
        "E",
        "gypt"
      ],
      [
        "H",
        "al"
      ],
      [
        "H",
        "om"
      ],
      [
        "K",
        "im"
      ],
      [
        "L",
        "ake"
      ],
      [
        "M",
        "er"
      ],
      [
        "M",
        "id"
      ],
      [
        "O",
        "pp"
      ],
      [
        "P",
        "ak"
      ],
      [
        "P",
        "ress"
      ],
      [
        "Q",
        "ue"
      ],
      [
        "R",
        "ay"
      ],
      [
        "S",
        "cientists"
      ],
      [
        "T",
        "ay"
      ],
      [
        "T",
        "ropical"
      ],
      [
        "U",
        "K"
      ],
      [
        "V",
        "i"
      ],
      [
        "c",
        "is"
      ],
      [
        "c",
        "as"
      ],
      [
        "c",
        "ount"
      ],
      [
        "g",
        "un"
      ],
      [
        "k",
        "y"
      ],
      [
        "n",
        "s"
      ],
      [
        "p",
        "et"
      ],
      [
        "r",
        "is"
      ],
      [
        "t",
        "ing"
      ],
      [
        "t",
        "aken"
      ],
      [
        "w",
        "ide"
      ],
      [
        "y",
        "oung"
      ],
      [
        "er",
        "ing"
      ],
      [
        "at",
        "i"
      ],
      [
        "le",
        "arn"
      ],
      [
        "ac",
        "her"
      ],
      [
        "be",
        "y"
      ],
      [
        "un",
        "k"
      ],
      [
        "art",
        "ist"
      ],
      [
        "Ch",
        "un"
      ],
      [
        "St",
        "e"
      ],
      [
        "pro",
        "cess"
      ],
      [
        "part",
        "y"
      ],
      [
        "198",
        "1"
      ],
      [
        "ph",
        "oto"
      ],
      [
        "li",
        "ament"
      ],
      [
        "197",
        "8"
      ],
      [
        "mov",
        "e"
      ],
      [
        "che",
        "d"
      ],
      [
        "bo",
        "ard"
      ],
      [
        "Nor",
        "d"
      ],
      [
        "195",
        "9"
      ],
      [
        "most",
        "ly"
      ],
      [
        "Jo",
        "se"
      ],
      [
        "Th",
        "at"
      ],
      [
        "work",
        "ing"
      ],
      [
        "med",
        "ia"
      ],
      [
        "ition",
        "al"
      ],
      [
        "192",
        "4"
      ],
      [
        "Oc",
        "ulus"
      ],
      [
        "enn",
        "a"
      ],
      [
        "do",
        "es"
      ],
      [
        "Ma",
        "x"
      ],
      [
        "cons",
        "id"
      ],
      [
        "attack",
        "s"
      ],
      [
        "origin",
        "al"
      ],
      [
        "sport",
        "s"
      ],
      [
        "Dan",
        "iel"
      ],
      [
        "mod",
        "ern"
      ],
      [
        "arch",
        "itect"
      ],
      [
        "winn",
        "ing"
      ],
      [
        "sou",
        "thern"
      ],
      [
        "Pac",
        "ific"
      ],
      [
        "current",
        "ly"
      ],
      [
        "Rec",
        "ords"
      ],
      [
        "success",
        "ful"
      ],
      [
        "pi",
        "ec"
      ],
      [
        "Hen",
        "ry"
      ],
      [
        "AE",
        "W"
      ],
      [
        "Must",
        "afa"
      ],
      [
        "1",
        "st"
      ],
      [
        "4",
        "2"
      ],
      [
        "5",
        "7"
      ],
      [
        "B",
        "ase"
      ],
      [
        "C",
        "oun"
      ],
      [
        "C",
        "ast"
      ],
      [
        "C",
        "ourt"
      ],
      [
        "D",
        "omin"
      ],
      [
        "D",
        "ism"
      ],
      [
        "G",
        "ar"
      ],
      [
        "G",
        "overnment"
      ],
      [
        "H",
        "an"
      ],
      [
        "H",
        "ashi"
      ],
      [
        "J",
        "ust"
      ],
      [
        "M",
        "at"
      ],
      [
        "M",
        "ass"
      ],
      [
        "N",
        "ik"
      ],
      [
        "O",
        "ut"
      ],
      [
        "P",
        "ier"
      ],
      [
        "R",
        "ob"
      ],
      [
        "T",
        "ill"
      ],
      [
        "V",
        "ict"
      ],
      [
        "W",
        "ith"
      ],
      [
        "b",
        "illion"
      ],
      [
        "c",
        "ase"
      ],
      [
        "c",
        "ause"
      ],
      [
        "d",
        "oc"
      ],
      [
        "e",
        "as"
      ],
      [
        "f",
        "un"
      ],
      [
        "f",
        "em"
      ],
      [
        "f",
        "ire"
      ],
      [
        "h",
        "u"
      ],
      [
        "h",
        "and"
      ],
      [
        "l",
        "ished"
      ],
      [
        "p",
        "en"
      ],
      [
        "p",
        "ers"
      ],
      [
        "p",
        "ost"
      ],
      [
        "r",
        "adio"
      ],
      [
        "s",
        "al"
      ],
      [
        "s",
        "ays"
      ],
      [
        "y",
        "al"
      ],
      [
        "é",
        "r"
      ],
      [
        "in",
        "i"
      ],
      [
        "in",
        "ese"
      ],
      [
        "in",
        "osaur"
      ],
      [
        "on",
        "to"
      ],
      [
        "en",
        "er"
      ],
      [
        "at",
        "ives"
      ],
      [
        "it",
        "a"
      ],
      [
        "re",
        "cent"
      ],
      [
        "om",
        "a"
      ],
      [
        "to",
        "gether"
      ],
      [
        "le",
        "ast"
      ],
      [
        "st",
        "age"
      ],
      [
        "am",
        "ed"
      ],
      [
        "el",
        "i"
      ],
      [
        "se",
        "y"
      ],
      [
        "ur",
        "i"
      ],
      [
        "ir",
        "l"
      ],
      [
        "un",
        "ivers"
      ],
      [
        "ig",
        "a"
      ],
      [
        "op",
        "ened"
      ],
      [
        "ot",
        "el"
      ],
      [
        "ain",
        "ed"
      ],
      [
        "Ch",
        "rom"
      ],
      [
        "Ch",
        "ief"
      ],
      [
        "Ch",
        "urch"
      ],
      [
        "Ch",
        "inese"
      ],
      [
        "ill",
        "a"
      ],
      [
        "ak",
        "er"
      ],
      [
        "con",
        "st"
      ],
      [
        "te",
        "xt"
      ],
      [
        "gr",
        "and"
      ],
      [
        "if",
        "f"
      ],
      [
        "pr",
        "on"
      ],
      [
        "ect",
        "s"
      ],
      [
        "qu",
        "es"
      ],
      [
        "me",
        "ga"
      ],
      [
        "che",
        "m"
      ],
      [
        "form",
        "s"
      ],
      [
        "193",
        "0"
      ],
      [
        "Com",
        "mun"
      ],
      [
        "off",
        "ice"
      ],
      [
        "col",
        "lect"
      ],
      [
        "Austr",
        "ia"
      ],
      [
        "Sp",
        "ain"
      ],
      [
        "season",
        "s"
      ],
      [
        "publ",
        "ican"
      ],
      [
        "Car",
        "l"
      ],
      [
        "Man",
        "che"
      ],
      [
        "pos",
        "s"
      ],
      [
        "fin",
        "ished"
      ],
      [
        "Sw",
        "amp"
      ],
      [
        "district",
        "s"
      ],
      [
        "Russ",
        "ia"
      ],
      [
        "run",
        "ner"
      ],
      [
        "develop",
        "ment"
      ],
      [
        "winn",
        "er"
      ],
      [
        "compet",
        "ed"
      ],
      [
        "Mex",
        "ico"
      ],
      [
        "Comp",
        "any"
      ],
      [
        "dam",
        "age"
      ],
      [
        "Miss",
        "ouri"
      ],
      [
        "mean",
        "ing"
      ],
      [
        "techn",
        "ology"
      ],
      [
        "tem",
        "per"
      ],
      [
        "Dem",
        "ocr"
      ],
      [
        "crit",
        "ic"
      ],
      [
        "estab",
        "lished"
      ],
      [
        "Tod",
        "ay"
      ],
      [
        "Assoc",
        "iation"
      ],
      [
        "Opp",
        "ong"
      ],
      [
        "Dism",
        "al"
      ],
      [
        "Hashi",
        "oka"
      ],
      [
        "Vict",
        "or"
      ],
      [
        "4",
        "3"
      ],
      [
        "4",
        "6"
      ],
      [
        "8",
        "4"
      ],
      [
        "B",
        "ell"
      ],
      [
        "B",
        "road"
      ],
      [
        "B",
        "ank"
      ],
      [
        "C",
        "ard"
      ],
      [
        "D",
        "or"
      ],
      [
        "D",
        "am"
      ],
      [
        "E",
        "ver"
      ],
      [
        "H",
        "ung"
      ],
      [
        "J",
        "os"
      ],
      [
        "L",
        "os"
      ],
      [
        "M",
        "ore"
      ],
      [
        "M",
        "use"
      ],
      [
        "N",
        "ash"
      ],
      [
        "O",
        "ld"
      ],
      [
        "P",
        "enn"
      ],
      [
        "R",
        "he"
      ],
      [
        "R",
        "io"
      ],
      [
        "S",
        "R"
      ],
      [
        "S",
        "ing"
      ],
      [
        "S",
        "ant"
      ],
      [
        "S",
        "port"
      ],
      [
        "b",
        "on"
      ],
      [
        "b",
        "ia"
      ],
      [
        "b",
        "ass"
      ],
      [
        "g",
        "l"
      ],
      [
        "g",
        "ent"
      ],
      [
        "h",
        "or"
      ],
      [
        "h",
        "urricane"
      ],
      [
        "k",
        "er"
      ],
      [
        "l",
        "ove"
      ],
      [
        "l",
        "van"
      ],
      [
        "m",
        "ix"
      ],
      [
        "n",
        "i"
      ],
      [
        "n",
        "ight"
      ],
      [
        "n",
        "iss"
      ],
      [
        "o",
        "or"
      ],
      [
        "r",
        "or"
      ],
      [
        "s",
        "cience"
      ],
      [
        "t",
        "re"
      ],
      [
        "u",
        "ese"
      ],
      [
        "w",
        "all"
      ],
      [
        "w",
        "ife"
      ],
      [
        "w",
        "rest"
      ],
      [
        "y",
        "n"
      ],
      [
        "z",
        "burg"
      ],
      [
        "he",
        "alth"
      ],
      [
        "in",
        "o"
      ],
      [
        "in",
        "vol"
      ],
      [
        "es",
        "pec"
      ],
      [
        "and",
        "a"
      ],
      [
        "and",
        "er"
      ],
      [
        "ic",
        "ks"
      ],
      [
        "ic",
        "ations"
      ],
      [
        "re",
        "ached"
      ],
      [
        "st",
        "ar"
      ],
      [
        "st",
        "arr"
      ],
      [
        "am",
        "ong"
      ],
      [
        "am",
        "ount"
      ],
      [
        "th",
        "od"
      ],
      [
        "ac",
        "es"
      ],
      [
        "el",
        "d"
      ],
      [
        "ow",
        "a"
      ],
      [
        "um",
        "p"
      ],
      [
        "com",
        "es"
      ],
      [
        "ab",
        "ove"
      ],
      [
        "Ch",
        "oice"
      ],
      [
        "con",
        "nect"
      ],
      [
        "te",
        "en"
      ],
      [
        "if",
        "ied"
      ],
      [
        "our",
        "ces"
      ],
      [
        "ex",
        "ecut"
      ],
      [
        "end",
        "ing"
      ],
      [
        "ke",
        "ep"
      ],
      [
        "ach",
        "ute"
      ],
      [
        "ide",
        "a"
      ],
      [
        "og",
        "n"
      ],
      [
        "me",
        "as"
      ],
      [
        "ans",
        "as"
      ],
      [
        "ict",
        "ion"
      ],
      [
        "197",
        "4"
      ],
      [
        "202",
        "5"
      ],
      [
        "mov",
        "ement"
      ],
      [
        "br",
        "idge"
      ],
      [
        "Nor",
        "mand"
      ],
      [
        "195",
        "7"
      ],
      [
        "195",
        "8"
      ],
      [
        "Fran",
        "cis"
      ],
      [
        "sy",
        "lvan"
      ],
      [
        "start",
        "ing"
      ],
      [
        "ep",
        "is"
      ],
      [
        "div",
        "ided"
      ],
      [
        "Bar",
        "b"
      ],
      [
        "Geor",
        "gia"
      ],
      [
        "Ma",
        "jor"
      ],
      [
        "Cor",
        "n"
      ],
      [
        "bel",
        "ie"
      ],
      [
        "Co",
        "ast"
      ],
      [
        "origin",
        "ally"
      ],
      [
        "Ac",
        "cording"
      ],
      [
        "Bre",
        "men"
      ],
      [
        "sc",
        "ore"
      ],
      [
        "langu",
        "ages"
      ],
      [
        "..",
        "."
      ],
      [
        "produ",
        "ction"
      ],
      [
        "Ear",
        "th"
      ],
      [
        "lik",
        "ely"
      ],
      [
        "compos",
        "er"
      ],
      [
        "dise",
[...]
